<pad>	0
<unk>	0
<s>	0
</s>	0
▁t	-0
in	-1
▁c	-2
▁a	-3
▁s	-4
re	-5
er	-6
es	-7
on	-8
▁b	-9
he	-10
▁,	-11
▁p	-12
nd	-13
at	-14
▁m	-15
▁o	-16
ed	-17
▁f	-18
ing	-19
▁d	-20
▁and	-21
il	-22
en	-23
▁w	-24
▁to	-25
ou	-26
ar	-27
▁the	-28
as	-29
▁in	-30
it	-31
▁u	-32
▁1	-33
or	-34
le	-35
an	-36
ic	-37
eg	-38
ut	-39
▁co	-40
al	-41
▁g	-42
is	-43
ti	-44
po	-45
ow	-46
red	-47
▁l	-48
poon	-49
▁cu	-50
ac	-51
ak	-52
▁cup	-53
▁n	-54
ent	-55
▁of	-56
eas	-57
pp	-58
▁un	-59
ith	-60
▁with	-61
▁ch	-62
til	-63
ro	-64
et	-65
▁re	-66
ri	-67
um	-68
00	-69
el	-70
▁until	-71
▁su	-72
▁2	-73
▁on	-74
▁h	-75
tion	-76
▁min	-77
▁coo	-78
redi	-79
ents	-80
ingredi	-81
▁th	-82
▁ov	-83
ingredients	-84
heat	-85
to	-86
our	-87
ot	-88
ab	-89
les	-90
gh	-91
ce	-92
▁minut	-93
easpoon	-94
▁teaspoon	-95
ory	-96
am	-97
ly	-98
ateg	-99
ategory	-100
ve	-101
▁minutes	-102
ch	-103
ad	-104
▁for	-105
▁cook	-106
ge	-107
▁mi	-108
▁pe	-109
ter	-110
▁sal	-111
▁(	-112
ast	-113
▁mix	-114
▁be	-115
▁pre	-116
▁e	-117
▁3	-118
ables	-119
▁fl	-120
▁bak	-121
st	-122
▁into	-123
ablespoon	-124
▁tablespoon	-125
ll	-126
▁di	-127
▁gr	-128
id	-129
ick	-130
▁salt	-131
ber	-132
bd	-133
dd	-134
▁br	-135
pper	-136
▁sa	-137
▁v	-138
▁wh	-139
▁sp	-140
▁sti	-141
ion	-142
gar	-143
ound	-144
ill	-145
▁ingredients	-146
▁pepper	-147
▁stir	-148
▁or	-149
▁deg	-150
ack	-151
▁degre	-152
ese	-153
▁degrees	-154
lic	-155
▁but	-156
ure	-157
▁is	-158
out	-159
ra	-160
▁che	-161
uce	-162
▁sugar	-163
▁des	-164
un	-165
▁heat	-166
ol	-167
ction	-168
▁over	-169
▁le	-170
▁y	-171
her	-172
▁ab	-173
igh	-174
▁bow	-175
▁bowl	-176
▁add	-177
ption	-178
▁j	-179
▁oven	-180
▁cho	-181
▁about	-182
ur	-183
▁r	-184
▁pl	-185
▁butter	-186
umber	-187
egg	-188
ctions	-189
▁sub	-190
▁lar	-191
▁st	-192
▁dire	-193
▁large	-194
▁egg	-195
▁directions	-196
▁cr	-197
▁com	-198
cri	-199
▁number	-200
▁tit	-201
▁descri	-202
▁title	-203
▁category	-204
▁description	-205
category	-206
▁ningredients	-207
own	-208
▁cheese	-209
▁preheat	-210
mo	-211
▁sauce	-212
ake	-213
ture	-214
ip	-215
▁1/	-216
sh	-217
▁oil	-218
im	-219
▁cups	-220
▁baking	-221
▁so	-222
ay	-223
▁onion	-224
ine	-225
ater	-226
ice	-227
ough	-228
▁mixture	-229
ace	-230
▁flour	-231
ish	-232
▁water	-233
ate	-234
▁tablespoons	-235
edi	-236
▁it	-237
se	-238
▁gar	-239
▁this	-240
▁cre	-241
▁brown	-242
▁sh	-243
pped	-244
▁4	-245
ry	-246
▁(1	-247
icken	-248
▁all	-249
all	-250
▁as	-251
▁ro	-252
ver	-253
read	-254
▁ground	-255
ato	-256
▁medi	-257
▁medium	-258
▁fro	-259
▁an	-260
ite	-261
ight	-262
qu	-263
ie	-264
▁oun	-265
▁gre	-266
ap	-267
▁cream	-268
ain	-269
▁se	-270
ans	-271
▁place	-272
▁i	-273
▁ju	-274
▁garlic	-275
▁chicken	-276
ell	-277
av	-278
▁ser	-279
der	-280
▁chopped	-281
ide	-282
▁comb	-283
ore	-284
bc	-285
▁rec	-286
let	-287
▁pot	-288
ach	-289
▁fre	-290
▁pow	-291
▁bl	-292
ces	-293
oo	-294
ted	-295
▁recip	-296
▁ounce	-297
get	-298
).	-299
▁5	-300
▁k	-301
gether	-302
▁powder	-303
▁pan	-304
▁together	-305
aste	-306
▁me	-307
▁mu	-308
▁top	-309
▁slic	-310
▁white	-311
▁are	-312
ser	-313
▁sk	-314
▁1/2	-315
▁from	-316
▁dish	-317
mon	-318
ff	-319
ss	-320
inch	-321
▁dough	-322
▁bake	-323
oil	-324
▁can	-325
ilk	-326
▁remo	-327
om	-328
▁te	-329
▁con	-330
▁eggs	-331
▁red	-332
▁par	-333
ers	-334
▁cool	-335
▁pie	-336
ef	-337
ul	-338
ightly	-339
▁at	-340
▁black	-341
ant	-342
▁taste	-343
atoes	-344
ir	-345
▁fresh	-346
▁remove	-347
▁preheated	-348
illet	-349
▁pour	-350
ies	-351
▁milk	-352
▁you	-353
▁cut	-354
age	-355
▁ex	-356
▁10	-357
▁she	-358
▁teaspoons	-359
ink	-360
oth	-361
and	-362
▁cover	-363
th	-364
▁make	-365
li	-366
▁skillet	-367
▁bread	-368
▁beef	-369
ined	-370
ely	-371
▁tom	-372
lo	-373
▁al	-374
inn	-375
▁serve	-376
ger	-377
eason	-378
us	-379
▁recipe	-380
▁rem	-381
▁beat	-382
▁season	-383
old	-384
:1	-385
illa	-386
ood	-387
▁combine	-388
▁boil	-389
anilla	-390
▁vanilla	-391
▁remain	-392
col	-393
nder	-394
▁oli	-395
orn	-396
▁tr	-397
▁ne	-398
▁hour	-399
▁mel	-400
▁veg	-401
▁remaining	-402
mall	-403
ves	-404
▁set	-405
tr	-406
▁sheet	-407
pa	-408
▁roll	-409
▁tur	-410
▁each	-411
▁more	-412
▁app	-413
ork	-414
ated	-415
▁well	-416
we	-417
ft	-418
▁let	-419
ke	-420
▁out	-421
▁sim	-422
▁veget	-423
▁green	-424
▁ev	-425
▁spr	-426
akes	-427
▁juice	-428
me	-429
▁sl	-430
▁small	-431
▁smo	-432
▁prepa	-433
▁olive	-434
▁pound	-435
75	-436
▁hot	-437
mer	-438
ard	-439
▁eas	-440
▁lightly	-441
▁lemon	-442
ime	-443
colate	-444
ag	-445
▁pack	-446
▁dra	-447
ts	-448
be	-449
amon	-450
fe	-451
ole	-452
▁chil	-453
▁fill	-454
innamon	-455
▁pap	-456
▁en	-457
▁cake	-458
▁corn	-459
▁dri	-460
ally	-461
▁trans	-462
▁even	-463
▁8	-464
▁cinnamon	-465
▁chocolate	-466
ous	-467
▁hal	-468
avor	-469
▁lo	-470
▁li	-471
▁he	-472
fri	-473
weet	-474
▁bring	-475
▁sprink	-476
▁prepared	-477
umb	-478
ade	-479
▁mar	-480
ian	-481
▁meat	-482
ust	-483
▁cookies	-484
ld	-485
isk	-486
zz	-487
50	-488
fer	-489
▁bro	-490
able	-491
ving	-492
▁6	-493
ery	-494
act	-495
▁then	-496
ase	-497
▁clo	-498
▁ste	-499
▁1/4	-500
▁sprinkle	-501
▁smooth	-502
ave	-503
ist	-504
▁soft	-505
are	-506
ps	-507
▁car	-508
▁refri	-509
mp	-510
▁30	-511
▁past	-512
▁extr	-513
ru	-514
▁if	-515
ring	-516
▁tender	-517
▁transfer	-518
▁extract	-519
▁cent	-520
▁us	-521
▁whisk	-522
▁refriger	-523
▁mo	-524
21	-525
▁crumb	-526
▁bat	-527
▁ble	-528
▁qu	-529
ries	-530
▁cooking	-531
ee	-532
ue	-533
▁potatoes	-534
pose	-535
one	-536
urpose	-537
▁easy	-538
▁rice	-539
est	-540
ne	-541
▁low	-542
215	-543
▁15	-544
art	-545
fore	-546
▁melted	-547
▁before	-548
arm	-549
▁center	-550
purpose	-551
▁your	-552
▁350	-553
▁bre	-554
pe	-555
▁stirring	-556
iced	-557
▁up	-558
ened	-559
ced	-560
▁sliced	-561
ather	-562
▁simmer	-563
ins	-564
ck	-565
▁inch	-566
▁combined	-567
▁hours	-568
▁warm	-569
▁onions	-570
▁spread	-571
▁just	-572
▁salad	-573
con	-574
▁that	-575
▁side	-576
▁these	-577
ved	-578
▁pork	-579
▁sweet	-580
▁(175	-581
▁browned	-582
▁del	-583
▁evenly	-584
▁turn	-585
pan	-586
▁tomatoes	-587
▁my	-588
ash	-589
▁gather	-590
hed	-591
os	-592
eded	-593
▁gold	-594
▁use	-595
▁shred	-596
▁div	-597
▁lay	-598
▁beans	-599
▁aside	-600
▁vin	-601
▁one	-602
▁filling	-603
▁cont	-604
ful	-605
ile	-606
▁golden	-607
▁vegetable	-608
▁bot	-609
▁half	-610
cc	-611
ray	-612
uff	-613
ious	-614
▁crust	-615
▁sou	-616
pping	-617
ise	-618
ire	-619
▁saucepan	-620
ded	-621
▁onto	-622
▁paper	-623
ange	-624
af	-625
hen	-626
ars	-627
room	-628
shroom	-629
▁delic	-630
▁20	-631
▁slices	-632
egar	-633
▁sod	-634
▁diced	-635
▁serving	-636
▁cloves	-637
▁vinegar	-638
▁minced	-639
▁recipes	-640
acon	-641
▁mushroom	-642
tom	-643
▁drain	-644
▁shredded	-645
▁z	-646
▁chili	-647
▁delicious	-648
▁batter	-649
▁bacon	-650
▁package	-651
▁spray	-652
▁flavor	-653
ass	-654
▁press	-655
▁soda	-656
ump	-657
▁cooked	-658
▁dried	-659
stant	-660
high	-661
▁squ	-662
▁pieces	-663
▁dry	-664
▁9	-665
▁per	-666
▁bottom	-667
▁fry	-668
▁blend	-669
▁grill	-670
▁time	-671
▁spoon	-672
▁grease	-673
cess	-674
▁ar	-675
▁sc	-676
▁tomato	-677
▁gl	-678
ze	-679
▁cas	-680
ct	-681
▁any	-682
▁reduce	-683
▁using	-684
▁soup	-685
▁chip	-686
▁bell	-687
ks	-688
▁seasoning	-689
▁broth	-690
▁nut	-691
▁(2	-692
till	-693
▁rack	-694
▁needed	-695
▁carro	-696
inger	-697
▁pasta	-698
ges	-699
▁dis	-700
▁not	-701
▁12	-702
▁when	-703
▁pro	-704
co	-705
berries	-706
▁fin	-707
ess	-708
▁comp	-709
ame	-710
ub	-711
▁casser	-712
▁dishes	-713
▁peel	-714
▁ri	-715
▁stra	-716
▁coat	-717
▁roast	-718
▁high	-719
▁have	-720
▁sour	-721
▁bas	-722
▁muff	-723
▁they	-724
ich	-725
ides	-726
unch	-727
▁layer	-728
▁form	-729
ley	-730
▁wra	-731
ature	-732
▁will	-733
ds	-734
▁ed	-735
ini	-736
▁seed	-737
▁ounces	-738
▁sto	-739
▁great	-740
▁parm	-741
ided	-742
oy	-743
na	-744
▁break	-745
▁thr	-746
▁slow	-747
▁them	-748
▁ginger	-749
▁peppers	-750
▁po	-751
▁pars	-752
▁no	-753
▁chips	-754
▁complet	-755
low	-756
▁inser	-757
▁tw	-758
▁thick	-759
▁parsley	-760
▁cle	-761
key	-762
▁has	-763
▁pinch	-764
▁mushrooms	-765
ano	-766
▁cris	-767
▁least	-768
ort	-769
▁refrigerate	-770
▁air	-771
▁very	-772
▁through	-773
▁sides	-774
▁tor	-775
uc	-776
esan	-777
kin	-778
▁completely	-779
▁softened	-780
alls	-781
berry	-782
▁divided	-783
▁parmesan	-784
▁main	-785
▁temp	-786
▁whole	-787
stard	-788
▁ever	-789
ddar	-790
nut	-791
▁inserted	-792
▁cheddar	-793
▁cookie	-794
▁by	-795
avy	-796
umpkin	-797
▁marin	-798
ka	-799
▁sur	-800
▁made	-801
▁cooker	-802
par	-803
▁lime	-804
joy	-805
▁enjoy	-806
▁casserole	-807
fast	-808
erature	-809
▁may	-810
▁saus	-811
anan	-812
▁temperature	-813
ition	-814
▁like	-815
alian	-816
▁de	-817
2153	-818
▁light	-819
ently	-820
ired	-821
▁occ	-822
asion	-823
▁down	-824
ape	-825
▁occasion	-826
▁fold	-827
ment	-828
▁lon	-829
▁allow	-830
min	-831
enne	-832
ould	-833
▁toss	-834
▁steak	-835
▁crisp	-836
eep	-837
▁do	-838
ptional	-839
▁cel	-840
▁sausage	-841
▁apple	-842
▁soy	-843
ings	-844
▁celery	-845
ang	-846
▁fir	-847
▁pumpkin	-848
▁line	-849
▁surf	-850
▁oat	-851
▁thin	-852
▁surface	-853
▁food	-854
▁banan	-855
▁read	-856
▁contin	-857
▁mixer	-858
led	-859
▁foil	-860
▁instant	-861
aves	-862
ayenne	-863
▁cayenne	-864
tle	-865
ress	-866
uch	-867
▁chill	-868
▁occasionally	-869
▁crumbs	-870
▁mustard	-871
optional	-872
ple	-873
▁liqu	-874
astic	-875
ily	-876
▁nood	-877
▁creamy	-878
▁almon	-879
▁italian	-880
▁sy	-881
reg	-882
▁peeled	-883
▁tortill	-884
▁uns	-885
amb	-886
▁ice	-887
▁bag	-888
▁syru	-889
▁quick	-890
▁cumin	-891
▁syrup	-892
east	-893
▁slightly	-894
▁off	-895
▁breakfast	-896
▁turkey	-897
▁drained	-898
▁clean	-899
▁day	-900
▁pi	-901
zen	-902
▁orange	-903
▁cold	-904
▁appe	-905
▁garn	-906
▁desired	-907
▁continue	-908
▁edges	-909
▁plate	-910
▁grated	-911
▁seeds	-912
▁potato	-913
▁wrap	-914
▁yeast	-915
antro	-916
ilantro	-917
▁cub	-918
▁cilantro	-919
▁pounds	-920
anut	-921
ew	-922
wh	-923
▁7	-924
▁carrots	-925
▁topping	-926
▁frozen	-927
app	-928
aw	-929
▁favor	-930
oney	-931
▁straw	-932
▁oreg	-933
▁ra	-934
▁oregano	-935
▁perfe	-936
▁secon	-937
ook	-938
▁garnish	-939
25	-940
▁hand	-941
▁honey	-942
rimp	-943
meg	-944
conut	-945
▁peanut	-946
▁tow	-947
▁spe	-948
▁melt	-949
▁bur	-950
▁nutmeg	-951
▁ele	-952
:8	-953
other	-954
:7	-955
ush	-956
chment	-957
▁work	-958
▁frost	-959
▁minute	-960
▁parchment	-961
▁si	-962
▁inc	-963
▁vegetables	-964
▁coconut	-965
ome	-966
▁comes	-967
▁sheets	-968
:9	-969
▁apples	-970
▁noodles	-971
te	-972
▁two	-973
ushed	-974
▁every	-975
▁(8	-976
▁favorite	-977
▁basil	-978
cakes	-979
tiz	-980
ta	-981
rika	-982
▁paprika	-983
cake	-984
▁finely	-985
▁appetiz	-986
▁perfect	-987
▁wine	-988
▁pat	-989
▁crushed	-990
▁best	-991
▁wire	-992
such	-993
▁while	-994
▁plastic	-995
sa	-996
bs	-997
▁gently	-998
▁shrimp	-999
▁stand	-1000
▁towel	-1001
▁rolls	-1002
side	-1003
▁room	-1004
▁dress	-1005
zza	-1006
ator	-1007
▁wor	-1008
▁slice	-1009
/4	-1010
▁toast	-1011
ican	-1012
▁(16	-1013
▁fryer	-1014
tric	-1015
▁spin	-1016
▁firm	-1017
▁im	-1018
ctric	-1019
▁electric	-1020
▁jal	-1021
▁heavy	-1022
ree	-1023
▁mas	-1024
▁confe	-1025
▁reser	-1026
▁leaves	-1027
▁confection	-1028
way	-1029
ary	-1030
▁liquid	-1031
▁paste	-1032
▁spinach	-1033
:6	-1034
▁repe	-1035
ruit	-1036
▁repeat	-1037
▁should	-1038
oc	-1039
nuts	-1040
▁ham	-1041
▁refrigerator	-1042
▁desser	-1043
apple	-1044
▁pine	-1045
▁kn	-1046
▁dressing	-1047
oun	-1048
ble	-1049
▁pec	-1050
osher	-1051
▁separ	-1052
▁tast	-1053
▁whi	-1054
▁beaten	-1055
▁mean	-1056
▁cl	-1057
:10	-1058
▁crack	-1059
met	-1060
star	-1061
up	-1062
while	-1063
▁pizza	-1064
▁muffin	-1065
sem	-1066
▁fri	-1067
onna	-1068
▁meanwhile	-1069
▁process	-1070
▁sn	-1071
lla	-1072
onnaise	-1073
tur	-1074
ull	-1075
▁fam	-1076
arella	-1077
zzarella	-1078
▁mayonnaise	-1079
▁mozzarella	-1080
▁wal	-1081
vered	-1082
og	-1083
90	-1084
▁spic	-1085
▁thicken	-1086
▁pick	-1087
▁af	-1088
▁some	-1089
▁25	-1090
alth	-1091
▁baked	-1092
▁bub	-1093
abb	-1094
▁breast	-1095
iz	-1096
▁confectioners	-1097
ucch	-1098
ae	-1099
▁drizz	-1100
▁rest	-1101
▁375	-1102
mas	-1103
▁bet	-1104
ucchini	-1105
▁zest	-1106
▁blue	-1107
▁flakes	-1108
▁col	-1109
▁(190	-1110
▁pineapple	-1111
▁we	-1112
▁3/4	-1113
▁brush	-1114
▁after	-1115
▁tri	-1116
abbage	-1117
▁kosher	-1118
alted	-1119
ually	-1120
row	-1121
▁free	-1122
night	-1123
ately	-1124
▁short	-1125
▁enough	-1126
13	-1127
orated	-1128
▁care	-1129
▁lid	-1130
▁stri	-1131
▁cabbage	-1132
▁back	-1133
esame	-1134
▁(15	-1135
▁banana	-1136
▁sesame	-1137
▁unsalted	-1138
▁man	-1139
▁zucchini	-1140
rist	-1141
▁longer	-1142
▁stick	-1143
ther	-1144
▁loaf	-1145
▁simple	-1146
ristmas	-1147
oughly	-1148
so	-1149
ig	-1150
▁glass	-1151
▁bubb	-1152
▁arr	-1153
▁lit	-1154
▁1/3	-1155
turn	-1156
ens	-1157
▁return	-1158
▁oats	-1159
▁mixing	-1160
▁family	-1161
▁separate	-1162
ites	-1163
▁pastry	-1164
▁fruit	-1165
starch	-1166
▁drizzle	-1167
fully	-1168
▁cornstarch	-1169
pick	-1170
its	-1171
▁frosting	-1172
▁contain	-1173
xican	-1174
:5	-1175
▁addition	-1176
▁arrange	-1177
▁boiling	-1178
▁mic	-1179
▁freshly	-1180
yme	-1181
▁yol	-1182
▁45	-1183
▁thyme	-1184
sol	-1185
▁fork	-1186
▁seconds	-1187
▁appetizers	-1188
:11	-1189
▁disc	-1190
shire	-1191
▁squash	-1192
▁microw	-1193
▁moist	-1194
▁home	-1195
▁little	-1196
▁ext	-1197
▁bon	-1198
cester	-1199
cestershire	-1200
▁microwave	-1201
althy	-1202
▁tooth	-1203
▁inches	-1204
ation	-1205
oured	-1206
▁walnuts	-1207
▁almond	-1208
ting	-1209
▁pink	-1210
▁ther	-1211
▁beg	-1212
▁worcestershire	-1213
▁thermo	-1214
▁fluff	-1215
▁toothpick	-1216
▁overnight	-1217
▁balls	-1218
ered	-1219
meter	-1220
▁thermometer	-1221
▁marinade	-1222
▁other	-1223
▁16	-1224
▁speed	-1225
▁400	-1226
ght	-1227
▁skin	-1228
▁cran	-1229
▁blended	-1230
▁divide	-1231
▁square	-1232
▁seal	-1233
▁few	-1234
inner	-1235
▁coco	-1236
▁discard	-1237
cook	-1238
▁around	-1239
▁thor	-1240
.5	-1241
▁thoroughly	-1242
▁cocoa	-1243
▁salted	-1244
ute	-1245
▁flat	-1246
▁don	-1247
▁blender	-1248
▁floured	-1249
▁good	-1250
▁dou	-1251
▁juic	-1252
▁makes	-1253
▁too	-1254
▁kni	-1255
▁(200	-1256
▁than	-1257
▁strips	-1258
▁cher	-1259
▁extra	-1260
▁round	-1261
▁whipped	-1262
▁muffins	-1263
▁was	-1264
▁carefully	-1265
▁cakes	-1266
▁ket	-1267
▁imm	-1268
amel	-1269
▁fluffy	-1270
▁-	-1271
▁av	-1272
▁stock	-1273
▁meatb	-1274
▁ball	-1275
13-	-1276
▁lamb	-1277
▁chile	-1278
▁ag	-1279
▁container	-1280
▁tac	-1281
▁ap	-1282
yle	-1283
▁love	-1284
:12	-1285
▁ye	-1286
▁am	-1287
▁dissol	-1288
▁pecans	-1289
▁won	-1290
▁snack	-1291
isc	-1292
▁knife	-1293
▁way	-1294
▁shall	-1295
▁run	-1296
▁keep	-1297
▁wheat	-1298
aking	-1299
▁dip	-1300
ellow	-1301
free	-1302
▁alum	-1303
oni	-1304
▁deep	-1305
▁bite	-1306
▁mac	-1307
▁caramel	-1308
▁get	-1309
inum	-1310
meal	-1311
▁aluminum	-1312
▁cubes	-1313
▁fat	-1314
ty	-1315
▁coated	-1316
▁tortillas	-1317
▁go	-1318
▁shape	-1319
▁(10	-1320
▁meal	-1321
▁gi	-1322
▁inst	-1323
▁sand	-1324
▁yellow	-1325
▁another	-1326
▁(14	-1327
▁immedi	-1328
▁immediately	-1329
▁christmas	-1330
wich	-1331
▁once	-1332
▁crispy	-1333
▁40	-1334
▁chops	-1335
ized	-1336
ah	-1337
ten	-1338
ding	-1339
bread	-1340
▁margar	-1341
tover	-1342
ftover	-1343
▁carrot	-1344
▁dinner	-1345
▁mexican	-1346
:4	-1347
),	-1348
▁dro	-1349
ased	-1350
▁cond	-1351
▁cur	-1352
▁piece	-1353
▁strawberries	-1354
▁cuc	-1355
▁cucumber	-1356
ula	-1357
▁pressure	-1358
▁leftover	-1359
▁thinly	-1360
▁bar	-1361
▁color	-1362
urt	-1363
▁spicy	-1364
▁cooled	-1365
▁excess	-1366
▁salsa	-1367
▁jar	-1368
▁whites	-1369
ogurt	-1370
▁constant	-1371
▁jars	-1372
▁yogurt	-1373
less	-1374
▁mashed	-1375
ties	-1376
▁ready	-1377
▁rais	-1378
▁constantly	-1379
▁served	-1380
made	-1381
▁bay	-1382
▁acc	-1383
▁ad	-1384
▁meatballs	-1385
ci	-1386
▁spice	-1387
eless	-1388
milk	-1389
▁grad	-1390
▁non	-1391
▁wed	-1392
ling	-1393
▁gradually	-1394
▁cans	-1395
tern	-1396
▁gla	-1397
chup	-1398
▁condens	-1399
▁ketchup	-1400
▁boneless	-1401
▁sandwich	-1402
▁(6	-1403
▁stuff	-1404
icot	-1405
▁wa	-1406
gs	-1407
▁condensed	-1408
sp	-1409
▁ca	-1410
▁packed	-1411
▁tortilla	-1412
ere	-1413
stick	-1414
arian	-1415
▁bun	-1416
ark	-1417
gr	-1418
▁end	-1419
▁peach	-1420
semary	-1421
▁toasted	-1422
▁both	-1423
di	-1424
▁rosemary	-1425
▁sw	-1426
▁cann	-1427
▁kid	-1428
▁thickened	-1429
style	-1430
▁stew	-1431
▁pans	-1432
nch	-1433
orp	-1434
▁batch	-1435
▁ribs	-1436
▁store	-1437
▁ac	-1438
▁bisc	-1439
▁chilled	-1440
▁sure	-1441
▁incorp	-1442
uid	-1443
olid	-1444
▁healthy	-1445
▁fluid	-1446
▁(7	-1447
ccol	-1448
asag	-1449
▁salmon	-1450
▁apart	-1451
aple	-1452
ored	-1453
▁her	-1454
ocad	-1455
▁chi	-1456
▁start	-1457
▁avocad	-1458
▁cheesecake	-1459
asagna	-1460
▁homemade	-1461
ccoli	-1462
2154	-1463
ening	-1464
▁spat	-1465
▁kne	-1466
▁raisins	-1467
▁pure	-1468
als	-1469
▁desserts	-1470
▁smok	-1471
▁also	-1472
▁buttermilk	-1473
▁(12	-1474
▁fish	-1475
▁rise	-1476
gers	-1477
▁broccoli	-1478
▁star	-1479
▁bars	-1480
▁spatula	-1481
▁brunch	-1482
▁flavors	-1483
▁1-	-1484
▁broil	-1485
per	-1486
ween	-1487
▁between	-1488
▁scra	-1489
aked	-1490
▁por	-1491
▁glaze	-1492
▁bo	-1493
▁tim	-1494
loaf	-1495
▁reserved	-1496
uck	-1497
▁jalape	-1498
oles	-1499
▁eat	-1500
▁roasted	-1501
▁long	-1502
▁knead	-1503
▁unco	-1504
apen	-1505
▁yolks	-1506
:13	-1507
▁tops	-1508
▁lasagna	-1509
▁cand	-1510
▁jo	-1511
▁ic	-1512
▁processor	-1513
mm	-1514
if	-1515
ness	-1516
lease	-1517
▁maple	-1518
▁french	-1519
▁strawberry	-1520
ffee	-1521
▁chun	-1522
ddle	-1523
▁dark	-1524
▁turning	-1525
▁tasty	-1526
▁salads	-1527
▁gran	-1528
▁drop	-1529
tail	-1530
▁pu	-1531
▁halves	-1532
▁grilled	-1533
▁bec	-1534
▁fried	-1535
▁pit	-1536
ud	-1537
avored	-1538
▁1/2-	-1539
▁jalapen	-1540
▁juices	-1541
▁fo	-1542
▁accor	-1543
▁breads	-1544
▁macar	-1545
▁according	-1546
▁tre	-1547
uten	-1548
het	-1549
int	-1550
▁shortening	-1551
▁almonds	-1552
▁dill	-1553
▁cubed	-1554
▁making	-1555
▁incorporated	-1556
▁peas	-1557
▁cupcakes	-1558
▁patties	-1559
▁prepare	-1560
od	-1561
▁again	-1562
▁biscu	-1563
▁new	-1564
▁full	-1565
▁rich	-1566
cktail	-1567
▁meatloaf	-1568
bl	-1569
▁ir	-1570
uf	-1571
corn	-1572
▁seeded	-1573
▁seasoned	-1574
▁shake	-1575
els	-1576
ider	-1577
ma	-1578
▁fet	-1579
▁pop	-1580
▁shell	-1581
▁most	-1582
tive	-1583
▁bananas	-1584
▁fra	-1585
oliday	-1586
tuce	-1587
iss	-1588
ai	-1589
▁trad	-1590
▁cocktail	-1591
ong	-1592
▁35	-1593
▁try	-1594
▁olives	-1595
▁lettuce	-1596
▁pudd	-1597
▁sum	-1598
▁avocado	-1599
▁used	-1600
▁thaw	-1601
▁bri	-1602
▁hands	-1603
chil	-1604
bled	-1605
▁treat	-1606
▁mixed	-1607
▁heated	-1608
▁flip	-1609
▁ve	-1610
▁much	-1611
pot	-1612
rit	-1613
▁macaroni	-1614
▁steam	-1615
▁blueberries	-1616
ways	-1617
▁taco	-1618
turer	-1619
▁dessert	-1620
ufac	-1621
▁manufac	-1622
▁manufacturer	-1623
▁clove	-1624
▁tradition	-1625
arp	-1626
ino	-1627
▁without	-1628
▁still	-1629
▁crumbly	-1630
▁bean	-1631
▁nuts	-1632
▁sit	-1633
ola	-1634
▁summer	-1635
▁adding	-1636
ener	-1637
▁pudding	-1638
ages	-1639
hetti	-1640
▁transl	-1641
fl	-1642
▁always	-1643
▁cons	-1644
icotta	-1645
▁margarine	-1646
▁batches	-1647
atter	-1648
▁towels	-1649
mmed	-1650
▁ricotta	-1651
▁under	-1652
▁snacks	-1653
▁wedges	-1654
▁rub	-1655
▁dr	-1656
▁cherry	-1657
▁vers	-1658
▁holiday	-1659
wise	-1660
▁quart	-1661
▁sea	-1662
▁thawed	-1663
▁dec	-1664
ucent	-1665
▁translucent	-1666
▁icing	-1667
▁fragr	-1668
▁(3	-1669
20	-1670
gin	-1671
▁covered	-1672
▁only	-1673
▁mini	-1674
ount	-1675
▁fragrant	-1676
▁class	-1677
▁doubled	-1678
irc	-1679
▁burgers	-1680
▁puree	-1681
▁gu	-1682
▁spag	-1683
▁spaghetti	-1684
▁additional	-1685
▁coffee	-1686
▁bu	-1687
do	-1688
cho	-1689
amic	-1690
end	-1691
▁year	-1692
▁cranberries	-1693
▁9-	-1694
▁rins	-1695
▁chunks	-1696
▁skinless	-1697
chilad	-1698
▁cutting	-1699
▁jalapeno	-1700
.25	-1701
▁evap	-1702
▁rinsed	-1703
ket	-1704
umm	-1705
ular	-1706
▁nonstick	-1707
▁classic	-1708
▁halved	-1709
▁shallow	-1710
▁circ	-1711
▁topped	-1712
▁met	-1713
▁mon	-1714
▁been	-1715
▁(4	-1716
▁fe	-1717
uring	-1718
▁squee	-1719
▁rin	-1720
oop	-1721
▁inside	-1722
▁cider	-1723
▁same	-1724
▁portion	-1725
▁gravy	-1726
cy	-1727
▁curry	-1728
▁grate	-1729
op	-1730
▁pancakes	-1731
▁bubbly	-1732
:14	-1733
▁tex	-1734
▁bit	-1735
▁wood	-1736
dered	-1737
▁instru	-1738
▁loo	-1739
eng	-1740
▁feta	-1741
▁tart	-1742
▁wonder	-1743
▁instructions	-1744
▁easily	-1745
▁fillet	-1746
▁gluten	-1747
ek	-1748
▁buns	-1749
loin	-1750
▁powdered	-1751
▁enchilad	-1752
hn	-1753
▁plus	-1754
▁24	-1755
▁uncovered	-1756
weetened	-1757
cooked	-1758
▁squares	-1759
ale	-1760
▁pies	-1761
▁325	-1762
▁take	-1763
ets	-1764
pl	-1765
▁dust	-1766
▁john	-1767
▁breasts	-1768
▁unsweetened	-1769
▁need	-1770
▁sem	-1771
ength	-1772
▁puff	-1773
ier	-1774
lower	-1775
▁drink	-1776
ander	-1777
ms	-1778
▁length	-1779
ates	-1780
▁crackers	-1781
▁packages	-1782
▁size	-1783
▁grand	-1784
spice	-1785
▁pull	-1786
▁tastes	-1787
ously	-1788
cr	-1789
▁dissolved	-1790
que	-1791
▁times	-1792
▁sift	-1793
▁steaks	-1794
▁sever	-1795
▁several	-1796
▁chop	-1797
ots	-1798
▁pul	-1799
▁(165	-1800
▁put	-1801
▁smoked	-1802
ney	-1803
▁old	-1804
▁freez	-1805
ori	-1806
au	-1807
▁evaporated	-1808
aham	-1809
▁rolling	-1810
▁leaf	-1811
▁ho	-1812
▁graham	-1813
▁cro	-1814
zo	-1815
ive	-1816
sized	-1817
▁equ	-1818
▁ll	-1819
anch	-1820
tang	-1821
▁redu	-1822
parag	-1823
▁dut	-1824
paragus	-1825
▁strain	-1826
▁14	-1827
▁asparagus	-1828
az	-1829
▁edge	-1830
▁slowly	-1831
▁consist	-1832
▁scoop	-1833
▁fun	-1834
▁rectang	-1835
▁vegetarian	-1836
▁el	-1837
▁barbe	-1838
▁version	-1839
▁fud	-1840
▁lin	-1841
ters	-1842
aks	-1843
▁sharp	-1844
▁bone	-1845
▁saut	-1846
aving	-1847
▁gener	-1848
▁yet	-1849
▁chees	-1850
▁leftovers	-1851
ret	-1852
▁cranberry	-1853
▁jack	-1854
mallow	-1855
shmallow	-1856
▁crunch	-1857
most	-1858
ency	-1859
▁mash	-1860
▁dutch	-1861
jon	-1862
▁cracker	-1863
sc	-1864
▁better	-1865
▁sweetened	-1866
▁marshmallow	-1867
▁consistency	-1868
▁frying	-1869
▁begins	-1870
▁head	-1871
▁ranch	-1872
▁saute	-1873
▁traditional	-1874
asses	-1875
atch	-1876
:3	-1877
▁spring	-1878
ounce	-1879
▁crab	-1880
▁almost	-1881
▁jam	-1882
fort	-1883
▁dump	-1884
olasses	-1885
thing	-1886
▁rinse	-1887
▁there	-1888
beef	-1889
▁ind	-1890
ully	-1891
safe	-1892
▁basket	-1893
ild	-1894
▁second	-1895
ating	-1896
▁ber	-1897
ok	-1898
asp	-1899
▁oatmeal	-1900
▁reserve	-1901
amp	-1902
▁dijon	-1903
▁fully	-1904
▁op	-1905
▁often	-1906
▁forms	-1907
bed	-1908
inese	-1909
ingle	-1910
alsamic	-1911
▁res	-1912
▁altern	-1913
▁stuffed	-1914
door	-1915
nt	-1916
▁chiles	-1917
▁sav	-1918
▁balsamic	-1919
▁mint	-1920
▁really	-1921
▁rolled	-1922
▁greek	-1923
▁lengthwise	-1924
▁bab	-1925
▁comfort	-1926
▁does	-1927
▁want	-1928
▁first	-1929
▁molasses	-1930
▁2-	-1931
▁hash	-1932
▁diff	-1933
▁crumbled	-1934
▁rasp	-1935
▁wonderful	-1936
▁stal	-1937
▁necess	-1938
▁halfway	-1939
▁peaches	-1940
law	-1941
▁single	-1942
▁frequ	-1943
▁freeze	-1944
▁outdoor	-1945
▁wee	-1946
▁wooden	-1947
▁vegg	-1948
▁frequently	-1949
▁1/8	-1950
fat	-1951
▁fudge	-1952
▁necessary	-1953
▁middle	-1954
ind	-1955
iche	-1956
▁savory	-1957
arb	-1958
▁thigh	-1959
▁roasting	-1960
▁tightly	-1961
▁reduced	-1962
▁425	-1963
▁heart	-1964
▁equal	-1965
▁friend	-1966
▁allspice	-1967
▁hard	-1968
▁(220	-1969
▁combin	-1970
▁active	-1971
chi	-1972
veg	-1973
▁super	-1974
atin	-1975
▁brownies	-1976
▁candy	-1977
▁clear	-1978
▁canned	-1979
just	-1980
▁had	-1981
▁pret	-1982
▁fillets	-1983
▁how	-1984
▁yolk	-1985
▁amount	-1986
▁beer	-1987
▁chef	-1988
▁incre	-1989
▁along	-1990
▁es	-1991
auce	-1992
▁adjust	-1993
▁spri	-1994
▁peaks	-1995
▁differe	-1996
▁baby	-1997
▁casseroles	-1998
orm	-1999
▁50	-2000
▁our	-2001
▁double	-2002
fry	-2003
▁stiff	-2004
▁removing	-2005
▁freezer	-2006
▁rings	-2007
▁fit	-2008
ils	-2009
▁cal	-2010
▁sticky	-2011
▁squeeze	-2012
▁18	-2013
lined	-2014
▁texture	-2015
▁pin	-2016
▁applesauce	-2017
▁bou	-2018
lings	-2019
▁165	-2020
ia	-2021
▁(14.5	-2022
▁cored	-2023
ran	-2024
▁biscuits	-2025
ipe	-2026
▁working	-2027
▁leaving	-2028
30	-2029
▁(18	-2030
▁close	-2031
▁lunch	-2032
▁cherries	-2033
ton	-2034
arts	-2035
▁cob	-2036
▁thickness	-2037
▁release	-2038
▁mach	-2039
▁lean	-2040
ize	-2041
▁cap	-2042
lect	-2043
▁marinate	-2044
▁gel	-2045
gre	-2046
xt	-2047
meat	-2048
▁machine	-2049
▁crumble	-2050
▁who	-2051
▁hus	-2052
▁layers	-2053
▁skew	-2054
▁flavorful	-2055
illon	-2056
▁years	-2057
▁near	-2058
▁broiler	-2059
▁loaves	-2060
▁bouillon	-2061
fuls	-2062
veget	-2063
▁lent	-2064
isweet	-2065
▁semisweet	-2066
▁fries	-2067
▁spices	-2068
aj	-2069
ey	-2070
▁begin	-2071
▁juiced	-2072
▁soups	-2073
▁uncooked	-2074
:15	-2075
▁sm	-2076
▁subst	-2077
▁next	-2078
▁many	-2079
▁platter	-2080
/3	-2081
ied	-2082
ummy	-2083
▁its	-2084
▁tin	-2085
quart	-2086
▁vegan	-2087
▁bowls	-2088
ita	-2089
een	-2090
che	-2091
▁outside	-2092
▁tenderloin	-2093
▁iron	-2094
▁wings	-2095
▁quickly	-2096
▁different	-2097
▁rum	-2098
▁caul	-2099
vel	-2100
▁racks	-2101
▁create	-2102
meric	-2103
kra	-2104
iflower	-2105
▁their	-2106
oriander	-2107
seal	-2108
▁coriander	-2109
▁increase	-2110
▁cornmeal	-2111
▁cauliflower	-2112
▁substit	-2113
▁mang	-2114
▁look	-2115
alo	-2116
▁beating	-2117
▁2/3	-2118
▁part	-2119
▁pulse	-2120
una	-2121
ead	-2122
▁bunch	-2123
flavored	-2124
▁wrapper	-2125
fu	-2126
▁(74	-2127
▁board	-2128
▁greased	-2129
▁60	-2130
air	-2131
allow	-2132
tight	-2133
▁kids	-2134
▁pickles	-2135
▁(9	-2136
▁done	-2137
outh	-2138
irgin	-2139
▁loos	-2140
wn	-2141
▁instead	-2142
▁appetizer	-2143
▁rot	-2144
▁plain	-2145
▁select	-2146
alloween	-2147
dium	-2148
▁days	-2149
▁canola	-2150
orie	-2151
10	-2152
▁kidney	-2153
▁pic	-2154
alf	-2155
▁everyone	-2156
▁reseal	-2157
▁flatten	-2158
▁dumplings	-2159
lish	-2160
ppy	-2161
▁chinese	-2162
leslaw	-2163
erm	-2164
ko	-2165
▁thighs	-2166
▁tacos	-2167
apes	-2168
▁yummy	-2169
▁tuna	-2170
▁filled	-2171
▁rectangle	-2172
sor	-2173
▁scall	-2174
▁hearty	-2175
but	-2176
ambur	-2177
▁spl	-2178
▁what	-2179
▁circle	-2180
▁liners	-2181
▁turmeric	-2182
fre	-2183
half	-2184
llow	-2185
▁twist	-2186
▁gelatin	-2187
head	-2188
▁nice	-2189
▁cot	-2190
▁airtight	-2191
ulated	-2192
▁which	-2193
▁mom	-2194
▁reach	-2195
▁easter	-2196
tere	-2197
▁bits	-2198
▁soak	-2199
▁scr	-2200
ause	-2201
▁dipping	-2202
▁whipping	-2203
▁blueberry	-2204
▁sec	-2205
afood	-2206
▁everything	-2207
bon	-2208
▁crunchy	-2209
▁lique	-2210
▁liqueur	-2211
▁dripping	-2212
arse	-2213
rec	-2214
▁coarse	-2215
▁sun	-2216
▁resealable	-2217
uffalo	-2218
▁because	-2219
▁coleslaw	-2220
▁wet	-2221
▁berries	-2222
bq	-2223
▁lad	-2224
▁brisk	-2225
▁own	-2226
▁waff	-2227
▁pickle	-2228
▁such	-2229
▁reg	-2230
▁wok	-2231
sodium	-2232
▁crow	-2233
▁meas	-2234
▁(5	-2235
ata	-2236
▁bubbles	-2237
▁drippings	-2238
oul	-2239
ual	-2240
▁pecan	-2241
▁mother	-2242
▁mango	-2243
vent	-2244
▁burger	-2245
▁12-	-2246
▁1/4-	-2247
▁pitted	-2248
quil	-2249
▁pes	-2250
▁popcorn	-2251
▁tofu	-2252
ning	-2253
▁panko	-2254
greased	-2255
tage	-2256
▁foam	-2257
▁grain	-2258
ipes	-2259
▁cottage	-2260
▁absor	-2261
▁generously	-2262
▁swiss	-2263
▁hold	-2264
recipes	-2265
▁ripe	-2266
▁touch	-2267
▁three	-2268
iano	-2269
ingers	-2270
ose	-2271
▁kit	-2272
▁simmering	-2273
▁ungreased	-2274
chen	-2275
cial	-2276
▁fine	-2277
▁scrape	-2278
▁cobbl	-2279
ara	-2280
▁dash	-2281
▁lower	-2282
▁shells	-2283
pork	-2284
▁meth	-2285
▁flavored	-2286
▁cucumbers	-2287
ping	-2288
▁veggies	-2289
noc	-2290
nocchi	-2291
lti	-2292
ern	-2293
▁away	-2294
▁chick	-2295
▁brisket	-2296
▁during	-2297
▁dissolve	-2298
inoa	-2299
..	-2300
▁preser	-2301
healthy	-2302
arsely	-2303
▁stalks	-2304
▁crowd	-2305
cooking	-2306
▁coarsely	-2307
▁quinoa	-2308
▁tip	-2309
▁sandwiches	-2310
▁method	-2311
vil	-2312
▁cere	-2313
▁corned	-2314
▁sprigs	-2315
ye	-2316
ari	-2317
vegetarian	-2318
press	-2319
▁decor	-2320
iber	-2321
▁kitchen	-2322
▁quartered	-2323
aker	-2324
▁soften	-2325
▁thir	-2326
▁quiche	-2327
▁never	-2328
▁hambur	-2329
▁leave	-2330
▁fall	-2331
▁four	-2332
baked	-2333
hub	-2334
hubarb	-2335
▁ends	-2336
▁crusts	-2337
▁buffalo	-2338
ams	-2339
▁week	-2340
terey	-2341
▁barbec	-2342
chocolate	-2343
ys	-2344
▁wax	-2345
▁stockpot	-2346
▁july	-2347
▁sau	-2348
▁chives	-2349
▁removed	-2350
▁give	-2351
▁toppings	-2352
▁come	-2353
▁tang	-2354
ible	-2355
▁refrigerated	-2356
zed	-2357
elf	-2358
yc	-2359
▁fil	-2360
▁cheesy	-2361
▁right	-2362
itas	-2363
▁big	-2364
▁8-	-2365
▁cutter	-2366
plant	-2367
▁scraping	-2368
▁450	-2369
▁mat	-2370
▁prefer	-2371
▁caj	-2372
▁combination	-2373
cup	-2374
otted	-2375
mother	-2376
▁starting	-2377
▁finish	-2378
.)	-2379
quila	-2380
▁cereal	-2381
▁juicy	-2382
▁gnocchi	-2383
▁art	-2384
▁cajun	-2385
▁last	-2386
▁pass	-2387
ven	-2388
ity	-2389
potle	-2390
▁chipotle	-2391
▁eggplant	-2392
▁slicing	-2393
▁thickens	-2394
▁ter	-2395
▁resem	-2396
▁rhubarb	-2397
▁punch	-2398
of	-2399
ala	-2400
▁hel	-2401
▁cooling	-2402
▁prevent	-2403
▁slotted	-2404
aki	-2405
▁special	-2406
▁pesto	-2407
aur	-2408
bre	-2409
▁uses	-2410
:16	-2411
▁party	-2412
▁bbq	-2413
▁wash	-2414
▁herbs	-2415
▁sage	-2416
▁see	-2417
▁substitute	-2418
▁bubbling	-2419
▁marshmallows	-2420
▁pur	-2421
▁resul	-2422
▁restaur	-2423
odka	-2424
▁butternut	-2425
▁char	-2426
▁portions	-2427
hern	-2428
▁sticks	-2429
uss	-2430
break	-2431
▁restaurant	-2432
▁kern	-2433
▁herb	-2434
breakfast	-2435
elly	-2436
pro	-2437
▁open	-2438
▁could	-2439
▁skewers	-2440
achi	-2441
▁mer	-2442
aut	-2443
▁less	-2444
▁cloth	-2445
▁artich	-2446
▁bottle	-2447
▁ta	-2448
abor	-2449
▁added	-2450
▁seafood	-2451
▁loves	-2452
▁trimmed	-2453
▁hor	-2454
▁enchiladas	-2455
▁hit	-2456
▁damp	-2457
cal	-2458
▁thanks	-2459
christmas	-2460
▁crumbles	-2461
▁greens	-2462
adish	-2463
▁requ	-2464
ream	-2465
▁tea	-2466
▁enchilada	-2467
istachi	-2468
▁whip	-2469
virgin	-2470
▁buttery	-2471
▁pickled	-2472
▁pistachi	-2473
iy	-2474
▁vodka	-2475
mel	-2476
▁starts	-2477
▁barbecue	-2478
▁monterey	-2479
▁would	-2480
▁lentils	-2481
▁absorbed	-2482
▁those	-2483
▁handle	-2484
umps	-2485
br	-2486
▁cra	-2487
▁doll	-2488
▁(180	-2489
▁tequila	-2490
chicken	-2491
▁att	-2492
▁biscuit	-2493
ond	-2494
▁tangy	-2495
▁kale	-2496
▁finger	-2497
bles	-2498
▁whisking	-2499
▁rib	-2500
▁find	-2501
▁pancake	-2502
fried	-2503
melon	-2504
gi	-2505
▁ladle	-2506
▁custard	-2507
▁cornbread	-2508
▁roma	-2509
bake	-2510
▁base	-2511
fresh	-2512
iyaki	-2513
viled	-2514
▁card	-2515
▁packet	-2516
▁pretz	-2517
mexican	-2518
▁dist	-2519
▁gri	-2520
▁morn	-2521
▁coloring	-2522
ris	-2523
vely	-2524
▁cupcake	-2525
▁pear	-2526
ny	-2527
▁raspberry	-2528
▁halloween	-2529
band	-2530
over	-2531
▁rimmed	-2532
▁granulated	-2533
▁came	-2534
▁watermelon	-2535
like	-2536
tein	-2537
▁husband	-2538
▁und	-2539
▁hamburger	-2540
▁marinated	-2541
bur	-2542
ached	-2543
iment	-2544
▁chew	-2545
▁flaked	-2546
inter	-2547
▁marinara	-2548
ug	-2549
▁cast	-2550
▁drinks	-2551
▁follow	-2552
▁mering	-2553
▁cobbler	-2554
▁bul	-2555
▁log	-2556
▁tap	-2557
▁jelly	-2558
▁(230	-2559
▁burrit	-2560
:2	-2561
▁poss	-2562
▁brief	-2563
▁13	-2564
pend	-2565
▁whe	-2566
▁warmed	-2567
▁noodle	-2568
▁briefly	-2569
ished	-2570
nic	-2571
▁lids	-2572
ax	-2573
▁teriyaki	-2574
ons	-2575
▁gift	-2576
ative	-2577
▁160	-2578
▁stems	-2579
▁takes	-2580
amom	-2581
▁cardamom	-2582
rach	-2583
atur	-2584
▁10-	-2585
ingredient	-2586
▁x	-2587
▁bour	-2588
cut	-2589
pes	-2590
▁ty	-2591
▁think	-2592
▁beaut	-2593
bow	-2594
orean	-2595
racha	-2596
5-	-2597
▁peanuts	-2598
▁moistened	-2599
▁flore	-2600
▁firmly	-2601
▁cresc	-2602
▁indian	-2603
ince	-2604
▁griddle	-2605
ix	-2606
▁feel	-2607
▁stews	-2608
giving	-2609
▁ram	-2610
eness	-2611
▁resembles	-2612
▁ome	-2613
▁germ	-2614
▁omelet	-2615
▁split	-2616
▁refresh	-2617
form	-2618
▁vari	-2619
▁night	-2620
ouse	-2621
oke	-2622
tic	-2623
ume	-2624
▁bra	-2625
▁chewy	-2626
▁irish	-2627
▁morning	-2628
▁wide	-2629
▁doneness	-2630
▁11	-2631
▁move	-2632
▁real	-2633
▁ramen	-2634
size	-2635
▁got	-2636
▁metal	-2637
▁picnic	-2638
▁tot	-2639
▁seam	-2640
ried	-2641
▁lim	-2642
▁(.25	-2643
▁multi	-2644
▁(110	-2645
▁protein	-2646
▁3-	-2647
▁pr	-2648
ross	-2649
ati	-2650
▁vol	-2651
▁(10.5	-2652
riracha	-2653
▁raw	-2654
▁attach	-2655
vet	-2656
▁refreshing	-2657
▁beauti	-2658
▁brine	-2659
▁inver	-2660
▁lift	-2661
▁root	-2662
▁volume	-2663
roll	-2664
▁amaz	-2665
▁possible	-2666
peas	-2667
▁easier	-2668
▁sriracha	-2669
bo	-2670
ashion	-2671
▁distri	-2672
ellini	-2673
▁bel	-2674
oli	-2675
mong	-2676
▁among	-2677
▁assem	-2678
▁(28	-2679
dge	-2680
▁bund	-2681
▁natur	-2682
▁rounds	-2683
▁cocktails	-2684
dough	-2685
▁poppy	-2686
▁calorie	-2687
▁crescent	-2688
▁meringue	-2689
irl	-2690
ople	-2691
▁pepperoni	-2692
▁people	-2693
▁sat	-2694
ought	-2695
▁tray	-2696
▁waxed	-2697
▁reserving	-2698
▁reaches	-2699
▁caramelized	-2700
▁winter	-2701
▁chickpeas	-2702
▁peppercorn	-2703
asting	-2704
▁basic	-2705
▁deviled	-2706
▁ori	-2707
ested	-2708
▁doesn	-2709
▁grandmother	-2710
acing	-2711
▁ahead	-2712
▁now	-2713
▁tartar	-2714
▁300	-2715
enn	-2716
▁145	-2717
▁frit	-2718
▁stuffing	-2719
8-	-2720
▁order	-2721
▁friends	-2722
▁shaker	-2723
▁prov	-2724
fted	-2725
▁melts	-2726
▁centers	-2727
▁indi	-2728
▁since	-2729
▁wonton	-2730
▁canning	-2731
▁faj	-2732
▁stre	-2733
▁artichoke	-2734
▁ton	-2735
▁pipe	-2736
▁trim	-2737
▁amazing	-2738
▁depend	-2739
▁pressing	-2740
▁chow	-2741
ests	-2742
▁help	-2743
▁florets	-2744
release	-2745
▁ens	-2746
▁margarita	-2747
ops	-2748
outhern	-2749
▁loosely	-2750
▁seasonings	-2751
▁perfectly	-2752
ky	-2753
▁fingers	-2754
▁grandma	-2755
▁spoonfuls	-2756
time	-2757
▁elastic	-2758
outs	-2759
▁timer	-2760
▁ph	-2761
▁bones	-2762
tered	-2763
▁relish	-2764
▁thai	-2765
▁def	-2766
▁being	-2767
▁origin	-2768
ashioned	-2769
▁glasses	-2770
de	-2771
▁jell	-2772
▁oys	-2773
han	-2774
▁turned	-2775
▁regular	-2776
▁peppercorns	-2777
▁chuck	-2778
▁sifted	-2779
▁skim	-2780
:17	-2781
.75	-2782
▁shallot	-2783
fy	-2784
▁lots	-2785
gl	-2786
uk	-2787
ions	-2788
▁pita	-2789
▁smoke	-2790
day	-2791
nog	-2792
proof	-2793
ieve	-2794
▁beets	-2795
▁fast	-2796
▁raspberries	-2797
▁waffle	-2798
▁sear	-2799
abet	-2800
▁satis	-2801
cell	-2802
vid	-2803
▁brownie	-2804
▁usually	-2805
▁vina	-2806
inning	-2807
▁across	-2808
▁coating	-2809
anese	-2810
▁ques	-2811
▁vinaig	-2812
rette	-2813
▁load	-2814
▁vinaigrette	-2815
▁pale	-2816
▁simp	-2817
▁asian	-2818
▁shallots	-2819
hing	-2820
▁bright	-2821
▁browns	-2822
▁masala	-2823
▁individ	-2824
▁uncover	-2825
rising	-2826
▁lock	-2827
▁lot	-2828
▁ster	-2829
▁quar	-2830
▁wil	-2831
▁(150	-2832
▁pier	-2833
▁bites	-2834
▁sauer	-2835
▁somet	-2836
▁something	-2837
▁house	-2838
▁brand	-2839
iskey	-2840
▁springform	-2841
▁pol	-2842
▁lumps	-2843
kraut	-2844
▁were	-2845
▁build	-2846
▁results	-2847
▁wrappers	-2848
▁thanksgiving	-2849
▁flax	-2850
▁flan	-2851
▁left	-2852
▁sauerkraut	-2853
wra	-2854
sides	-2855
▁measure	-2856
abetic	-2857
▁table	-2858
ance	-2859
vers	-2860
▁tu	-2861
▁attachment	-2862
▁wipe	-2863
▁(70	-2864
ium	-2865
▁aut	-2866
▁incl	-2867
▁slaw	-2868
▁bundt	-2869
▁found	-2870
▁eating	-2871
▁fiber	-2872
▁dent	-2873
▁fitted	-2874
▁popular	-2875
▁wedge	-2876
ricot	-2877
▁know	-2878
ardi	-2879
▁sil	-2880
▁orzo	-2881
▁quarts	-2882
tain	-2883
try	-2884
▁adds	-2885
▁cross	-2886
su	-2887
iter	-2888
▁deve	-2889
▁apricot	-2890
iel	-2891
▁gras	-2892
▁invert	-2893
▁pint	-2894
▁serr	-2895
▁function	-2896
▁candied	-2897
amole	-2898
dried	-2899
▁burn	-2900
▁parts	-2901
▁health	-2902
▁scramb	-2903
▁sher	-2904
acamole	-2905
cially	-2906
▁depending	-2907
▁holidays	-2908
▁dollop	-2909
▁worth	-2910
ina	-2911
oat	-2912
▁(63	-2913
▁amer	-2914
▁pressed	-2915
▁american	-2916
can	-2917
▁gall	-2918
▁check	-2919
▁lined	-2920
▁allrecipes	-2921
rane	-2922
▁eggnog	-2923
▁chowder	-2924
▁strainer	-2925
▁ris	-2926
▁kernels	-2927
▁barbeque	-2928
ik	-2929
crumb	-2930
anges	-2931
▁cooks	-2932
terol	-2933
▁walnut	-2934
▁deveined	-2935
▁stret	-2936
pecially	-2937
otti	-2938
▁whiskey	-2939
izo	-2940
orizo	-2941
▁chorizo	-2942
▁satisfy	-2943
top	-2944
▁tried	-2945
▁fridge	-2946
bell	-2947
▁tam	-2948
▁natural	-2949
▁southern	-2950
▁box	-2951
▁matzo	-2952
▁become	-2953
cher	-2954
▁allstar	-2955
▁third	-2956
▁running	-2957
▁tube	-2958
▁stretch	-2959
▁assemble	-2960
▁especially	-2961
▁bourbon	-2962
cream	-2963
▁oiled	-2964
▁breaking	-2965
▁far	-2966
▁prep	-2967
hentic	-2968
fish	-2969
tire	-2970
▁here	-2971
▁entire	-2972
▁distill	-2973
▁sprouts	-2974
▁breadcrumb	-2975
▁coun	-2976
ations	-2977
▁korean	-2978
▁spiced	-2979
gon	-2980
▁dente	-2981
▁twice	-2982
▁pretty	-2983
▁russ	-2984
▁distilled	-2985
▁rim	-2986
▁absol	-2987
▁shapes	-2988
fun	-2989
▁mild	-2990
▁gingerbread	-2991
ably	-2992
▁crusty	-2993
awai	-2994
ique	-2995
▁oyster	-2996
▁shortbread	-2997
by	-2998
▁call	-2999
▁inter	-3000
▁exper	-3001
▁goes	-3002
▁bottoms	-3003
pos	-3004
▁loin	-3005
▁okra	-3006
▁pulled	-3007
function	-3008
▁nic	-3009
▁holes	-3010
▁lobs	-3011
gn	-3012
fruit	-3013
▁parmig	-3014
otch	-3015
▁swirl	-3016
▁lobster	-3017
functional	-3018
▁puffed	-3019
umbo	-3020
▁appro	-3021
▁pears	-3022
iest	-3023
▁choice	-3024
▁father	-3025
▁source	-3026
▁goat	-3027
italian	-3028
▁loaded	-3029
▁sir	-3030
apanese	-3031
▁capers	-3032
▁flatbread	-3033
▁gets	-3034
▁(15.25	-3035
anish	-3036
▁parties	-3037
omme	-3038
atill	-3039
▁turns	-3040
past	-3041
giano	-3042
▁becom	-3043
▁sherry	-3044
▁creamed	-3045
▁beautiful	-3046
redo	-3047
▁alf	-3048
▁mouth	-3049
gy	-3050
ewish	-3051
presso	-3052
eter	-3053
▁tomatill	-3054
▁parmigiano	-3055
▁guacamole	-3056
▁bagel	-3057
▁beginning	-3058
▁emp	-3059
▁dusting	-3060
ban	-3061
▁simply	-3062
▁espresso	-3063
▁sirloin	-3064
lets	-3065
▁foamy	-3066
▁overh	-3067
▁stack	-3068
easter	-3069
▁steril	-3070
▁blackberries	-3071
hew	-3072
▁setting	-3073
▁crabmeat	-3074
ont	-3075
▁med	-3076
▁triple	-3077
▁crisps	-3078
▁overhang	-3079
▁mold	-3080
▁ensure	-3081
▁triang	-3082
lesh	-3083
ground	-3084
fashioned	-3085
▁til	-3086
sugar	-3087
no	-3088
▁scatter	-3089
▁diet	-3090
▁poke	-3091
▁flesh	-3092
▁cheeses	-3093
tu	-3094
the	-3095
cent	-3096
▁cer	-3097
▁treats	-3098
ioli	-3099
seradish	-3100
▁horseradish	-3101
▁creme	-3102
arn	-3103
ummus	-3104
▁elbow	-3105
▁circles	-3106
▁finished	-3107
gra	-3108
▁rame	-3109
▁granola	-3110
butter	-3111
▁hawai	-3112
/45	-3113
▁careful	-3114
▁ancho	-3115
▁reads	-3116
▁donut	-3117
▁cashew	-3118
▁alfredo	-3119
▁pinto	-3120
▁torn	-3121
▁crock	-3122
▁rom	-3123
enta	-3124
▁sodium	-3125
▁wrapped	-3126
ked	-3127
pic	-3128
▁incredi	-3129
allrecipes	-3130
▁cyc	-3131
cheese	-3132
▁space	-3133
▁tongs	-3134
▁excell	-3135
▁loosen	-3136
▁within	-3137
▁oranges	-3138
▁breadcrumbs	-3139
▁nicely	-3140
aped	-3141
ison	-3142
▁style	-3143
ken	-3144
▁gifts	-3145
▁dates	-3146
▁starter	-3147
▁ado	-3148
stuff	-3149
▁steamer	-3150
▁grilling	-3151
▁excellent	-3152
▁scallions	-3153
▁individual	-3154
▁strip	-3155
▁4-	-3156
ameter	-3157
▁fan	-3158
▁cube	-3159
▁pros	-3160
ciut	-3161
▁cycle	-3162
ciutto	-3163
oid	-3164
▁intern	-3165
▁prosciutto	-3166
nded	-3167
▁later	-3168
▁smaller	-3169
▁works	-3170
▁reheat	-3171
▁bor	-3172
▁pri	-3173
▁stro	-3174
▁adobo	-3175
▁rounded	-3176
▁(20	-3177
▁pers	-3178
▁preserves	-3179
▁pos	-3180
olone	-3181
▁plum	-3182
▁larger	-3183
▁fig	-3184
banzo	-3185
▁avoid	-3186
▁guests	-3187
▁healthier	-3188
▁rye	-3189
▁becomes	-3190
▁lat	-3191
stuffed	-3192
▁steamed	-3193
▁colander	-3194
▁(10.75	-3195
▁wilted	-3196
▁pad	-3197
▁ones	-3198
▁hearts	-3199
▁roughly	-3200
gluten	-3201
▁loved	-3202
calorie	-3203
▁direct	-3204
▁alternately	-3205
▁provolone	-3206
utely	-3207
ilar	-3208
▁dog	-3209
lock	-3210
▁camp	-3211
▁unbaked	-3212
▁absolutely	-3213
flower	-3214
:18	-3215
▁solid	-3216
▁german	-3217
▁basting	-3218
▁nearly	-3219
▁continu	-3220
▁grits	-3221
▁jewish	-3222
▁separated	-3223
▁moisten	-3224
▁area	-3225
▁bran	-3226
▁drops	-3227
▁soaked	-3228
▁counter	-3229
▁waffles	-3230
utney	-3231
▁similar	-3232
▁pickling	-3233
▁buttered	-3234
...	-3235
▁authentic	-3236
▁sourdough	-3237
cl	-3238
▁str	-3239
▁kick	-3240
▁tins	-3241
▁grapes	-3242
▁feature	-3243
▁diameter	-3244
bly	-3245
rained	-3246
▁unlock	-3247
aky	-3248
▁position	-3249
▁sprinkles	-3250
▁plates	-3251
▁zested	-3252
▁anise	-3253
about	-3254
▁stewed	-3255
▁original	-3256
scotch	-3257
▁avocados	-3258
▁key	-3259
▁6-	-3260
stars	-3261
▁allstars	-3262
▁pistachios	-3263
▁polenta	-3264
▁hawaiian	-3265
▁smoothie	-3266
▁butterscotch	-3267
xim	-3268
▁garam	-3269
▁burritos	-3270
▁lu	-3271
anana	-3272
banana	-3273
▁refried	-3274
▁preserving	-3275
jor	-3276
▁ang	-3277
aced	-3278
joram	-3279
▁grape	-3280
▁marjoram	-3281
▁alternative	-3282
▁cop	-3283
labor	-3284
▁recomme	-3285
▁garbanzo	-3286
ycat	-3287
thick	-3288
▁delight	-3289
▁undrained	-3290
2-	-3291
acci	-3292
cini	-3293
▁wait	-3294
▁lemonade	-3295
▁measuring	-3296
▁confectioner	-3297
fill	-3298
▁bags	-3299
new	-3300
▁comforting	-3301
▁eff	-3302
▁flaky	-3303
▁stalk	-3304
▁did	-3305
▁chia	-3306
▁brandy	-3307
kah	-3308
rate	-3309
reggiano	-3310
kins	-3311
▁sunflower	-3312
▁self	-3313
▁patty	-3314
▁thickest	-3315
ants	-3316
▁corner	-3317
▁interv	-3318
▁decorate	-3319
▁fire	-3320
▁keto	-3321
▁labor	-3322
▁leg	-3323
▁show	-3324
▁hummus	-3325
▁starch	-3326
kosher	-3327
▁change	-3328
ache	-3329
brown	-3330
▁meatball	-3331
▁curd	-3332
▁tight	-3333
▁passover	-3334
▁tort	-3335
▁forks	-3336
car	-3337
ondies	-3338
ranean	-3339
▁fritt	-3340
iterranean	-3341
▁ver	-3342
glish	-3343
▁gives	-3344
pumpkin	-3345
▁internal	-3346
▁scallops	-3347
agon	-3348
used	-3349
▁nach	-3350
▁level	-3351
▁cod	-3352
ither	-3353
turkey	-3354
▁tar	-3355
▁learn	-3356
▁approxim	-3357
ukkah	-3358
▁pobl	-3359
oulder	-3360
▁crush	-3361
▁things	-3362
thy	-3363
▁opa	-3364
▁total	-3365
▁tortellini	-3366
▁transferring	-3367
asted	-3368
isture	-3369
▁opaque	-3370
▁chutney	-3371
▁count	-3372
▁pretzels	-3373
ipping	-3374
▁thirds	-3375
▁created	-3376
▁biscotti	-3377
▁ups	-3378
▁skins	-3379
▁diagon	-3380
▁pistachio	-3381
anks	-3382
aping	-3383
▁squeezed	-3384
friend	-3385
▁concent	-3386
▁miniature	-3387
▁pretzel	-3388
▁quarters	-3389
▁shoulder	-3390
ren	-3391
chino	-3392
▁note	-3393
▁spreading	-3394
den	-3395
itr	-3396
llo	-3397
▁bir	-3398
▁mill	-3399
▁90	-3400
isin	-3401
▁looks	-3402
▁romaine	-3403
ath	-3404
▁1/8-	-3405
▁broken	-3406
▁popper	-3407
▁jalapenos	-3408
▁pom	-3409
fiber	-3410
▁push	-3411
indian	-3412
▁month	-3413
▁creole	-3414
▁granny	-3415
▁english	-3416
▁poblano	-3417
ennel	-3418
la	-3419
mes	-3420
mix	-3421
uine	-3422
▁deli	-3423
▁hope	-3424
▁either	-3425
iping	-3426
pr	-3427
atever	-3428
▁fennel	-3429
▁cracked	-3430
▁satisfying	-3431
pi	-3432
bute	-3433
sting	-3434
▁ling	-3435
ail	-3436
▁silic	-3437
▁whatever	-3438
ules	-3439
▁mem	-3440
▁reached	-3441
▁veggie	-3442
▁flipping	-3443
▁insert	-3444
land	-3445
▁spears	-3446
▁match	-3447
▁dissolves	-3448
pag	-3449
anoff	-3450
▁citr	-3451
▁deliciously	-3452
carb	-3453
▁ring	-3454
oultry	-3455
▁weeknight	-3456
tobell	-3457
▁mardi	-3458
▁russet	-3459
▁poultry	-3460
▁appear	-3461
▁anything	-3462
▁sticking	-3463
▁ven	-3464
▁stay	-3465
▁maras	-3466
▁granules	-3467
▁maraschino	-3468
tucc	-3469
warm	-3470
▁dred	-3471
▁copycat	-3472
▁scrambled	-3473
9-	-3474
luck	-3475
ganoff	-3476
▁point	-3477
▁stroganoff	-3478
chu	-3479
▁ii	-3480
▁chilies	-3481
▁colorful	-3482
▁pastries	-3483
appe	-3484
▁5-	-3485
▁mand	-3486
▁flank	-3487
rew	-3488
usel	-3489
▁ear	-3490
▁bulk	-3491
▁smith	-3492
ahead	-3493
▁famous	-3494
▁moisture	-3495
▁might	-3496
tobello	-3497
▁venison	-3498
pizza	-3499
▁3/4-	-3500
ward	-3501
▁potluck	-3502
▁55	-3503
▁snow	-3504
▁quite	-3505
▁slits	-3506
bisc	-3507
▁hook	-3508
▁going	-3509
▁serrano	-3510
▁dogs	-3511
ranate	-3512
▁south	-3513
▁secure	-3514
▁silicone	-3515
▁streusel	-3516
ousse	-3517
▁followed	-3518
dle	-3519
▁cav	-3520
▁clos	-3521
▁hole	-3522
▁chest	-3523
▁filet	-3524
▁cheesecakes	-3525
▁concentrate	-3526
▁mostly	-3527
uy	-3528
ep	-3529
▁bare	-3530
▁pomeg	-3531
▁approximately	-3532
ctar	-3533
▁nectar	-3534
ada	-3535
▁dai	-3536
▁agave	-3537
▁charred	-3538
▁thumb	-3539
iders	-3540
▁skewer	-3541
▁alternating	-3542
▁pomegranate	-3543
ared	-3544
filled	-3545
tially	-3546
▁berry	-3547
▁ceramic	-3548
▁ce	-3549
▁ide	-3550
▁plant	-3551
▁frosted	-3552
▁pitcher	-3553
▁features	-3554
▁eaten	-3555
▁world	-3556
▁looking	-3557
▁tips	-3558
▁decad	-3559
isser	-3560
isserie	-3561
▁incorpor	-3562
▁sterilized	-3563
azel	-3564
chef	-3565
uted	-3566
▁rav	-3567
▁sli	-3568
▁radish	-3569
wes	-3570
▁jer	-3571
▁gor	-3572
sweet	-3573
▁logs	-3574
dish	-3575
▁cous	-3576
▁child	-3577
ines	-3578
▁act	-3579
▁jig	-3580
▁salty	-3581
▁prepar	-3582
res	-3583
▁tater	-3584
down	-3585
▁disk	-3586
▁stove	-3587
▁lentil	-3588
▁distribute	-3589
▁36	-3590
▁gruy	-3591
▁luke	-3592
iny	-3593
▁har	-3594
ragon	-3595
▁lukewarm	-3596
des	-3597
▁ore	-3598
▁ravioli	-3599
velop	-3600
▁slide	-3601
▁impress	-3602
▁rotisserie	-3603
▁sliders	-3604
▁ramekins	-3605
ball	-3606
▁smoky	-3607
▁strand	-3608
▁step	-3609
▁lemons	-3610
halloween	-3611
carp	-3612
▁(11	-3613
carpone	-3614
▁piping	-3615
▁tarragon	-3616
▁tah	-3617
based	-3618
▁rims	-3619
▁fajitas	-3620
▁require	-3621
▁tahini	-3622
▁scratch	-3623
▁repl	-3624
oux	-3625
rug	-3626
▁paleo	-3627
▁boiled	-3628
▁burrito	-3629
▁sweetness	-3630
king	-3631
▁romano	-3632
▁rotini	-3633
▁ago	-3634
▁insp	-3635
▁mart	-3636
▁distribut	-3637
▁mascarpone	-3638
rom	-3639
▁lovely	-3640
▁buttercream	-3641
▁imp	-3642
▁thing	-3643
▁barely	-3644
▁hoisin	-3645
▁rubber	-3646
▁flavoring	-3647
▁wild	-3648
▁smell	-3649
▁paddle	-3650
▁.	-3651
▁quesad	-3652
▁optional	-3653
▁phy	-3654
▁fair	-3655
garlic	-3656
▁japanese	-3657
ette	-3658
loppy	-3659
tender	-3660
▁dredge	-3661
▁shaking	-3662
away	-3663
▁gan	-3664
▁prick	-3665
cks	-3666
enty	-3667
ments	-3668
whole	-3669
▁five	-3670
▁lump	-3671
▁pair	-3672
▁sound	-3673
▁cashews	-3674
▁layered	-3675
▁citrus	-3676
▁experiment	-3677
don	-3678
desser	-3679
▁limes	-3680
▁below	-3681
▁resid	-3682
▁disappe	-3683
▁mediterranean	-3684
iti	-3685
▁foc	-3686
▁arug	-3687
▁must	-3688
▁arugula	-3689
▁partially	-3690
▁portobello	-3691
mint	-3692
itake	-3693
ounts	-3694
▁na	-3695
accia	-3696
▁upside	-3697
▁amounts	-3698
▁linguine	-3699
▁tomatillos	-3700
eyed	-3701
▁grap	-3702
▁crout	-3703
▁given	-3704
▁heaping	-3705
▁sprig	-3706
▁toothpicks	-3707
▁bagels	-3708
▁chestnuts	-3709
▁(13	-3710
▁pea	-3711
▁outer	-3712
▁facing	-3713
▁phyllo	-3714
▁fettucc	-3715
ioc	-3716
see	-3717
▁cou	-3718
▁fant	-3719
▁watch	-3720
▁formed	-3721
jang	-3722
▁caps	-3723
▁focaccia	-3724
pasta	-3725
▁crosswise	-3726
ched	-3727
ching	-3728
▁mousse	-3729
cted	-3730
▁glo	-3731
▁pal	-3732
oncini	-3733
▁kernel	-3734
▁secret	-3735
▁intervals	-3736
ogi	-3737
usc	-3738
▁roux	-3739
▁browning	-3740
asing	-3741
▁drip	-3742
▁tuck	-3743
▁masher	-3744
▁ganache	-3745
▁decadent	-3746
lime	-3747
▁spo	-3748
▁wraps	-3749
▁bubble	-3750
▁inspired	-3751
▁martini	-3752
▁straight	-3753
▁thread	-3754
▁mayo	-3755
▁throw	-3756
▁boiler	-3757
▁please	-3758
▁directly	-3759
em	-3760
chinese	-3761
▁border	-3762
elli	-3763
▁vel	-3764
sticks	-3765
▁screw	-3766
crust	-3767
grain	-3768
▁hollow	-3769
▁sauces	-3770
self	-3771
▁naan	-3772
▁penne	-3773
▁fajita	-3774
▁sweetener	-3775
▁variation	-3776
▁fab	-3777
▁dice	-3778
▁versat	-3779
▁verm	-3780
iitake	-3781
atively	-3782
▁barley	-3783
▁candies	-3784
ioca	-3785
▁goo	-3786
▁hun	-3787
▁virgin	-3788
▁tapioca	-3789
ence	-3790
▁ligh	-3791
▁dot	-3792
▁weed	-3793
▁filets	-3794
▁peppermint	-3795
▁tie	-3796
▁oreo	-3797
▁prod	-3798
▁unwra	-3799
▁donuts	-3800
▁caraway	-3801
▁250	-3802
▁tossed	-3803
▁fantastic	-3804
▁pepperoncini	-3805
ign	-3806
▁blo	-3807
▁cour	-3808
▁incredibly	-3809
▁cuts	-3810
▁gochu	-3811
▁combines	-3812
leo	-3813
friendly	-3814
▁finally	-3815
▁crockpot	-3816
▁doughnuts	-3817
▁versatile	-3818
▁mir	-3819
chool	-3820
▁splash	-3821
▁lighter	-3822
▁ple	-3823
oiled	-3824
paleo	-3825
▁tend	-3826
▁frothy	-3827
▁garden	-3828
▁icings	-3829
ami	-3830
ero	-3831
▁bal	-3832
anted	-3833
shaped	-3834
▁tots	-3835
cous	-3836
▁mes	-3837
▁swit	-3838
▁weeks	-3839
▁allowing	-3840
▁couscous	-3841
apia	-3842
vetop	-3843
▁plenty	-3844
▁fes	-3845
white	-3846
▁holds	-3847
▁packets	-3848
inners	-3849
▁clams	-3850
▁crimp	-3851
▁share	-3852
▁choles	-3853
diabetic	-3854
▁cholesterol	-3855
ama	-3856
mate	-3857
▁(120	-3858
▁toward	-3859
▁17	-3860
▁int	-3861
istur	-3862
isturbed	-3863
▁servings	-3864
▁blackberry	-3865
▁undisturbed	-3866
▁called	-3867
▁tilapia	-3868
▁vig	-3869
▁miss	-3870
▁easiest	-3871
▁where	-3872
▁unroll	-3873
▁wanted	-3874
▁distributed	-3875
▁(24	-3876
▁couple	-3877
▁includ	-3878
▁trying	-3879
▁breaded	-3880
▁country	-3881
wheat	-3882
▁suit	-3883
▁poppers	-3884
▁actually	-3885
▁frittata	-3886
▁spot	-3887
▁months	-3888
kes	-3889
adas	-3890
▁pulp	-3891
▁angel	-3892
▁containers	-3893
▁colo	-3894
▁ulti	-3895
▁wing	-3896
tip	-3897
ella	-3898
quick	-3899
▁accum	-3900
pie	-3901
▁gumbo	-3902
▁typic	-3903
▁vigor	-3904
izont	-3905
▁clam	-3906
othing	-3907
▁colored	-3908
▁horizont	-3909
▁vigorously	-3910
ampag	-3911
ampagne	-3912
▁unique	-3913
▁blondies	-3914
▁blackened	-3915
▁cow	-3916
▁gin	-3917
▁chall	-3918
▁chunky	-3919
▁piment	-3920
▁gochujang	-3921
▁ingredient	-3922
chn	-3923
ety	-3924
▁braid	-3925
▁empan	-3926
▁gallon	-3927
▁complete	-3928
▁recommended	-3929
▁type	-3930
▁sloppy	-3931
▁pizz	-3932
entation	-3933
▁margaritas	-3934
amboo	-3935
ugget	-3936
▁bamboo	-3937
ors	-3938
zes	-3939
▁brie	-3940
▁float	-3941
▁nugget	-3942
▁nothing	-3943
▁diabetic	-3944
▁ultimate	-3945
▁accumulated	-3946
▁rectangles	-3947
esar	-3948
french	-3949
▁tent	-3950
▁glazed	-3951
▁insides	-3952
▁(32	-3953
▁pet	-3954
iness	-3955
▁pres	-3956
▁meals	-3957
▁mound	-3958
burger	-3959
▁ears	-3960
▁ending	-3961
▁develop	-3962
rem	-3963
ones	-3964
▁fabul	-3965
▁caesar	-3966
▁pattern	-3967
▁plantain	-3968
--	-3969
▁seems	-3970
▁dinners	-3971
▁softens	-3972
▁croutons	-3973
▁favorites	-3974
▁beet	-3975
pea	-3976
▁inclu	-3977
▁effort	-3978
▁craving	-3979
ove	-3980
▁(8-	-3981
▁blan	-3982
▁tails	-3983
▁course	-3984
▁buck	-3985
▁local	-3986
▁truff	-3987
▁tossing	-3988
arin	-3989
▁men	-3990
ambal	-3991
older	-3992
roasted	-3993
▁fruity	-3994
▁slivered	-3995
▁cannellini	-3996
omb	-3997
▁ach	-3998
▁craw	-3999
▁et	-4000
▁nachos	-4001
▁sealed	-4002
ja	-4003
▁bagu	-4004
▁save	-4005
▁decided	-4006
▁crawfish	-4007
▁hab	-4008
▁mis	-4009
dy	-4010
▁stop	-4011
▁chickpea	-4012
▁stovetop	-4013
▁vi	-4014
▁tasted	-4015
▁teaspoonfuls	-4016
estle	-4017
▁kind	-4018
▁veal	-4019
▁gooey	-4020
ised	-4021
▁shanks	-4022
▁130	-4023
▁coll	-4024
▁blood	-4025
uly	-4026
remely	-4027
▁person	-4028
▁frostings	-4029
pher	-4030
▁buy	-4031
cloth	-4032
▁bang	-4033
▁semi	-4034
covered	-4035
▁against	-4036
▁cutters	-4037
▁prob	-4038
▁shiitake	-4039
▁hint	-4040
▁rust	-4041
▁stor	-4042
▁techn	-4043
▁submer	-4044
▁atop	-4045
▁yiel	-4046
▁ziti	-4047
▁haban	-4048
▁overla	-4049
▁22	-4050
urry	-4051
▁(15.5	-4052
▁above	-4053
▁baste	-4054
insp	-4055
▁kal	-4056
▁legs	-4057
▁sizz	-4058
inspired	-4059
ico	-4060
▁cheesecloth	-4061
nap	-4062
▁tz	-4063
here	-4064
▁carbon	-4065
▁nuggets	-4066
rot	-4067
ouis	-4068
▁awes	-4069
▁mine	-4070
▁york	-4071
▁nutty	-4072
▁oppos	-4073
▁island	-4074
ingersnap	-4075
ever	-4076
velo	-4077
pherd	-4078
▁passed	-4079
▁sund	-4080
▁corners	-4081
▁started	-4082
▁fabulous	-4083
▁overlapping	-4084
iki	-4085
▁(26	-4086
▁eleg	-4087
▁discarding	-4088
uri	-4089
▁au	-4090
▁gy	-4091
▁pa	-4092
dessert	-4093
▁purpose	-4094
▁joe	-4095
fryer	-4096
▁phil	-4097
boiled	-4098
▁needs	-4099
▁extremely	-4100
zy	-4101
iana	-4102
▁texas	-4103
▁toffee	-4104
▁covering	-4105
atas	-4106
▁variety	-4107
▁generous	-4108
viche	-4109
isters	-4110
▁spots	-4111
▁elegant	-4112
▁throughout	-4113
▁game	-4114
▁shav	-4115
▁mince	-4116
▁incorporate	-4117
▁awesome	-4118
▁festive	-4119
onge	-4120
▁cus	-4121
▁six	-4122
velope	-4123
▁acorn	-4124
▁challah	-4125
▁envelope	-4126
ib	-4127
shi	-4128
cris	-4129
▁custom	-4130
▁string	-4131
yes	-4132
▁tab	-4133
▁bath	-4134
▁sieve	-4135
▁anchov	-4136
▁overmix	-4137
choles	-4138
▁hazel	-4139
▁maker	-4140
cholesterol	-4141
▁200	-4142
▁eye	-4143
water	-4144
oatmeal	-4145
spe	-4146
▁mug	-4147
▁rel	-4148
▁wish	-4149
▁fettuccine	-4150
▁em	-4151
▁risen	-4152
▁keeping	-4153
.4	-4154
for	-4155
sal	-4156
pany	-4157
slow	-4158
▁den	-4159
▁sugars	-4160
aters	-4161
loins	-4162
▁colby	-4163
▁smash	-4164
▁smoker	-4165
▁tenderloins	-4166
▁cheeseburger	-4167
▁stem	-4168
▁stone	-4169
boy	-4170
ills	-4171
▁power	-4172
▁raisin	-4173
ged	-4174
main	-4175
▁link	-4176
▁liner	-4177
▁tarts	-4178
times	-4179
▁miso	-4180
▁queso	-4181
▁verde	-4182
▁croiss	-4183
▁habanero	-4184
coh	-4185
aven	-4186
eled	-4187
▁val	-4188
▁heads	-4189
▁baguette	-4190
go	-4191
▁mesh	-4192
▁swed	-4193
▁cobblers	-4194
12-	-4195
mal	-4196
sin	-4197
▁enc	-4198
▁his	-4199
pound	-4200
▁surp	-4201
▁known	-4202
▁prime	-4203
meatloaf	-4204
▁spanish	-4205
▁sometimes	-4206
cond	-4207
▁yum	-4208
thday	-4209
season	-4210
▁sushi	-4211
hanukkah	-4212
▁standard	-4213
▁champagne	-4214
▁garnished	-4215
▁gloss	-4216
▁nonfat	-4217
▁perfection	-4218
▁horizontally	-4219
atz	-4220
▁mag	-4221
illas	-4222
second	-4223
▁minim	-4224
▁stored	-4225
▁mandarin	-4226
▁wonderfully	-4227
mac	-4228
atziki	-4229
▁exact	-4230
▁cowboy	-4231
▁thinner	-4232
▁triangle	-4233
▁tzatziki	-4234
15-	-4235
mini	-4236
▁sug	-4237
ality	-4238
ussels	-4239
▁dairy	-4240
▁final	-4241
▁anyone	-4242
▁bitters	-4243
▁pierced	-4244
▁brussels	-4245
▁sausages	-4246
asco	-4247
▁rap	-4248
inder	-4249
▁bott	-4250
▁mign	-4251
▁vent	-4252
▁option	-4253
▁bok	-4254
▁fer	-4255
▁choy	-4256
▁spir	-4257
▁technique	-4258
▁fran	-4259
▁hull	-4260
▁grind	-4261
▁dashes	-4262
▁unused	-4263
▁burning	-4264
lemon	-4265
seafood	-4266
▁clumps	-4267
ups	-4268
▁140	-4269
▁feed	-4270
▁nort	-4271
▁mignon	-4272
▁thought	-4273
▁id	-4274
coal	-4275
▁vis	-4276
neath	-4277
▁charcoal	-4278
▁processed	-4279
▁underneath	-4280
:19	-4281
▁bus	-4282
▁eyes	-4283
▁foods	-4284
▁jerky	-4285
▁velvet	-4286
cinnamon	-4287
▁seedless	-4288
▁gingersnap	-4289
sand	-4290
▁ale	-4291
▁soon	-4292
▁holder	-4293
sandwich	-4294
▁layering	-4295
aya	-4296
itz	-4297
ories	-4298
▁bulg	-4299
▁snap	-4300
▁northern	-4301
▁radishes	-4302
ito	-4303
aces	-4304
▁adap	-4305
▁mars	-4306
▁yams	-4307
▁degree	-4308
pre	-4309
seed	-4310
macar	-4311
▁bakes	-4312
▁marsala	-4313
▁apricots	-4314
▁touching	-4315
▁triangles	-4316
▁tabasco	-4317
▁thicker	-4318
vegetable	-4319
rare	-4320
▁club	-4321
▁blint	-4322
atic	-4323
▁curr	-4324
▁comple	-4325
▁ferment	-4326
▁traditionally	-4327
▁gum	-4328
▁tear	-4329
▁runny	-4330
ava	-4331
fro	-4332
eape	-4333
fied	-4334
▁steel	-4335
▁immers	-4336
▁monkey	-4337
▁brushing	-4338
ph	-4339
▁fr	-4340
bought	-4341
itos	-4342
▁nori	-4343
▁rapid	-4344
▁adv	-4345
hetta	-4346
▁grow	-4347
▁tail	-4348
peeled	-4349
ipino	-4350
▁defin	-4351
▁danish	-4352
▁continuously	-4353
inds	-4354
ugel	-4355
▁gro	-4356
merse	-4357
▁calz	-4358
▁touc	-4359
ouisiana	-4360
▁ceviche	-4361
▁immerse	-4362
▁replace	-4363
▁kneading	-4364
bas	-4365
bot	-4366
tija	-4367
▁truly	-4368
▁cotija	-4369
▁spoonful	-4370
eks	-4371
leaf	-4372
▁say	-4373
▁result	-4374
▁tenders	-4375
▁touched	-4376
you	-4377
▁row	-4378
▁name	-4379
▁shim	-4380
▁fairly	-4381
uschetta	-4382
4-	-4383
▁kab	-4384
▁pureed	-4385
▁registers	-4386
▁os	-4387
▁figs	-4388
▁masa	-4389
▁eight	-4390
▁melon	-4391
▁cavity	-4392
▁probably	-4393
▁tablespoonfuls	-4394
unt	-4395
okes	-4396
▁(60	-4397
bottom	-4398
malade	-4399
▁marmalade	-4400
ett	-4401
ips	-4402
ses	-4403
▁ent	-4404
▁sho	-4405
arind	-4406
ified	-4407
▁pulls	-4408
burgers	-4409
▁sponge	-4410
▁springs	-4411
gu	-4412
▁fix	-4413
icama	-4414
▁alcoh	-4415
▁drizzled	-4416
▁unpeeled	-4417
▁(1-	-4418
man	-4419
▁date	-4420
▁norm	-4421
▁cutlets	-4422
▁shepherd	-4423
▁tamarind	-4424
bean	-4425
blue	-4426
ille	-4427
▁100	-4428
▁dad	-4429
▁etc	-4430
▁mex	-4431
adian	-4432
▁gave	-4433
▁pock	-4434
▁mirin	-4435
▁jicama	-4436
▁placed	-4437
▁freezes	-4438
▁blintzes	-4439
rub	-4440
▁mal	-4441
orino	-4442
▁trout	-4443
▁hulled	-4444
▁school	-4445
▁residue	-4446
▁alongside	-4447
▁sprinkled	-4448
sk	-4449
late	-4450
▁cor	-4451
ience	-4452
peanut	-4453
make	-4454
korean	-4455
▁cornfl	-4456
seasoned	-4457
▁company	-4458
▁pimento	-4459
▁kee	-4460
▁exce	-4461
▁pods	-4462
▁cools	-4463
▁crepe	-4464
▁remem	-4465
▁spark	-4466
▁zesty	-4467
▁glossy	-4468
▁(1.5	-4469
▁door	-4470
▁tiny	-4471
▁couldn	-4472
▁believe	-4473
▁currants	-4474
illo	-4475
rice	-4476
▁plan	-4477
▁ropes	-4478
▁forming	-4479
▁placing	-4480
▁delightful	-4481
not	-4482
▁19	-4483
▁ki	-4484
▁sam	-4485
▁sor	-4486
▁having	-4487
▁itself	-4488
▁folding	-4489
▁23	-4490
▁lady	-4491
▁pico	-4492
▁marks	-4493
bottomed	-4494
blueberry	-4495
▁pecorino	-4496
▁restaurants	-4497
▁)	-4498
icelli	-4499
▁gallo	-4500
fic	-4501
▁ways	-4502
▁swedish	-4503
da	-4504
pack	-4505
irect	-4506
▁neck	-4507
efruit	-4508
▁truffle	-4509
▁preparing	-4510
▁grapefruit	-4511
dr	-4512
▁(21	-4513
▁mort	-4514
▁enjoyed	-4515
▁flatbreads	-4516
.1	-4517
ao	-4518
▁happ	-4519
▁memb	-4520
▁leeks	-4521
▁score	-4522
▁immersion	-4523
dut	-4524
▁70	-4525
ctive	-4526
▁lard	-4527
▁meats	-4528
wrapped	-4529
▁lowest	-4530
▁canadian	-4531
▁artichokes	-4532
▁continuing	-4533
▁vermicelli	-4534
mit	-4535
iments	-4536
ouille	-4537
verage	-4538
▁helps	-4539
▁cracks	-4540
▁maintain	-4541
▁remember	-4542
▁beautifully	-4543
elt	-4544
ues	-4545
ugh	-4546
ukon	-4547
▁tough	-4548
▁yukon	-4549
▁coleslaws	-4550
▁empanadas	-4551
▁diagonally	-4552
▁chur	-4553
▁unwrap	-4554
together	-4555
▁alcohol	-4556
▁diagonal	-4557
wal	-4558
▁(75	-4559
▁kiw	-4560
▁rose	-4561
▁crema	-4562
zucchini	-4563
▁letting	-4564
▁quarter	-4565
cran	-4566
mers	-4567
▁han	-4568
▁kabo	-4569
▁button	-4570
▁scraps	-4571
▁staple	-4572
abi	-4573
mic	-4574
mati	-4575
plum	-4576
▁panc	-4577
ourmet	-4578
▁fruits	-4579
▁deflate	-4580
▁opening	-4581
ex	-4582
ros	-4583
mered	-4584
▁shiny	-4585
▁chocol	-4586
▁wontons	-4587
▁cant	-4588
coated	-4589
▁lovers	-4590
▁sunday	-4591
▁getting	-4592
▁indirect	-4593
ron	-4594
oche	-4595
what	-4596
▁(54	-4597
▁sink	-4598
carrot	-4599
▁fancy	-4600
▁dipped	-4601
▁basmati	-4602
cranberry	-4603
ribs	-4604
amata	-4605
aster	-4606
balls	-4607
minute	-4608
tasting	-4609
▁taking	-4610
▁stopping	-4611
ational	-4612
▁proven	-4613
pt	-4614
▁(9-	-4615
▁500	-4616
ister	-4617
▁didn	-4618
▁husks	-4619
▁closed	-4620
▁brioche	-4621
▁birthday	-4622
▁sparkling	-4623
▁sprinkling	-4624
ago	-4625
▁gone	-4626
▁mess	-4627
▁rare	-4628
▁sake	-4629
▁liking	-4630
▁though	-4631
▁somewhat	-4632
▁buckwheat	-4633
print	-4634
mashed	-4635
▁gorge	-4636
▁jumbo	-4637
▁scrub	-4638
▁popped	-4639
▁heating	-4640
▁including	-4641
ats	-4642
ect	-4643
ilian	-4644
▁coals	-4645
▁enclo	-4646
instant	-4647
▁salami	-4648
▁caramels	-4649
▁serrated	-4650
oons	-4651
bacon	-4652
▁rind	-4653
▁plums	-4654
▁requires	-4655
fa	-4656
ado	-4657
▁exp	-4658
▁idea	-4659
▁mary	-4660
▁saff	-4661
▁tapped	-4662
▁boursin	-4663
mu	-4664
iron	-4665
▁hom	-4666
entle	-4667
▁jigg	-4668
▁latt	-4669
▁xant	-4670
▁gentle	-4671
▁xanthan	-4672
hee	-4673
your	-4674
▁bis	-4675
▁aunt	-4676
▁grab	-4677
▁creating	-4678
▁andouille	-4679
▁vit	-4680
▁brew	-4681
▁mah	-4682
▁duck	-4683
▁scor	-4684
▁ideas	-4685
▁switch	-4686
▁handful	-4687
med	-4688
ctin	-4689
▁waf	-4690
▁groc	-4691
▁test	-4692
▁avail	-4693
▁choose	-4694
▁pectin	-4695
▁stemmed	-4696
▁goodness	-4697
yl	-4698
▁ok	-4699
▁ben	-4700
iform	-4701
▁pops	-4702
▁rend	-4703
▁shot	-4704
▁true	-4705
▁youn	-4706
potato	-4707
▁spare	-4708
lasagna	-4709
▁mexico	-4710
▁wafers	-4711
▁uniform	-4712
▁wedding	-4713
ales	-4714
▁dense	-4715
▁soaking	-4716
▁shortcake	-4717
set	-4718
tips	-4719
▁core	-4720
▁sized	-4721
romatic	-4722
▁stream	-4723
mushroom	-4724
▁anytime	-4725
basa	-4726
food	-4727
itely	-4728
▁empty	-4729
▁lattice	-4730
▁kalamata	-4731
▁yourself	-4732
nam	-4733
▁(19	-4734
▁gib	-4735
olina	-4736
▁fond	-4737
▁crepes	-4738
▁braised	-4739
▁collard	-4740
bet	-4741
ult	-4742
vie	-4743
▁hu	-4744
▁zip	-4745
▁kiel	-4746
▁heaven	-4747
▁weight	-4748
▁pinches	-4749
▁aromatic	-4750
▁kielbasa	-4751
▁spreadable	-4752
▁(3.5	-4753
▁tree	-4754
▁produ	-4755
▁knives	-4756
macaroni	-4757
▁simmered	-4758
▁quesadillas	-4759
▁boy	-4760
oodle	-4761
▁cleaned	-4762
▁chocolat	-4763
ior	-4764
aser	-4765
▁bed	-4766
▁juli	-4767
pepper	-4768
▁definitely	-4769
:20	-4770
▁silk	-4771
ensive	-4772
▁drying	-4773
▁paring	-4774
▁blanched	-4775
▁includes	-4776
▁disappears	-4777
▁gas	-4778
▁isn	-4779
▁gratin	-4780
▁storage	-4781
▁contents	-4782
▁surprising	-4783
asti	-4784
▁busy	-4785
▁modi	-4786
▁coats	-4787
▁rather	-4788
▁rotate	-4789
▁opposite	-4790
▁potlucks	-4791
bi	-4792
bbq	-4793
▁fle	-4794
▁pli	-4795
▁flow	-4796
▁gorgeous	-4797
▁fool	-4798
▁sounds	-4799
▁grocery	-4800
cheesecake	-4801
umpti	-4802
cookie	-4803
▁asked	-4804
japanese	-4805
▁bursting	-4806
▁available	-4807
▁tomatillo	-4808
▁hamburgers	-4809
▁moj	-4810
▁husk	-4811
▁pizzas	-4812
▁slight	-4813
▁scrumpti	-4814
▁oh	-4815
inches	-4816
▁steps	-4817
▁brings	-4818
▁evapor	-4819
▁pliable	-4820
▁hanukkah	-4821
ready	-4822
▁sets	-4823
▁accom	-4824
▁pierce	-4825
▁limeade	-4826
▁sections	-4827
▁louisiana	-4828
▁why	-4829
▁handed	-4830
▁offset	-4831
▁camping	-4832
▁scallop	-4833
▁dumpling	-4834
▁took	-4835
▁vary	-4836
▁links	-4837
▁raise	-4838
▁fluted	-4839
▁grates	-4840
▁mortar	-4841
▁bruschetta	-4842
ler	-4843
wali	-4844
aring	-4845
▁ghee	-4846
oulash	-4847
▁liber	-4848
colored	-4849
▁ribbon	-4850
▁growing	-4851
▁saffron	-4852
▁provence	-4853
▁fingertips	-4854
irt	-4855
▁75	-4856
▁(260	-4857
▁able	-4858
▁sealing	-4859
▁summertime	-4860
▁48	-4861
ouss	-4862
ssom	-4863
fused	-4864
▁luck	-4865
▁blossom	-4866
▁typical	-4867
▁scrumptious	-4868
nce	-4869
she	-4870
▁cry	-4871
▁mass	-4872
▁tall	-4873
▁frank	-4874
▁nutella	-4875
▁chocolaty	-4876
ua	-4877
▁mist	-4878
▁strong	-4879
▁smoking	-4880
▁incredible	-4881
elle	-4882
etta	-4883
isted	-4884
▁palm	-4885
▁folded	-4886
▁requested	-4887
▁30-	-4888
work	-4889
▁foot	-4890
▁shaved	-4891
▁section	-4892
▁children	-4893
▁decorating	-4894
jack	-4895
arant	-4896
peach	-4897
gonz	-4898
▁meaty	-4899
gonzola	-4900
▁fritters	-4901
▁liberally	-4902
aff	-4903
eer	-4904
ord	-4905
▁15-	-4906
▁pil	-4907
▁sna	-4908
▁mush	-4909
▁prun	-4910
▁cryst	-4911
▁unble	-4912
▁bloody	-4913
▁import	-4914
▁developed	-4915
hot	-4916
bury	-4917
▁dep	-4918
▁mahi	-4919
▁blending	-4920
▁decoration	-4921
hy	-4922
▁twe	-4923
▁joes	-4924
▁rock	-4925
▁(1.25	-4926
▁diamon	-4927
▁harden	-4928
▁yields	-4929
▁achieve	-4930
▁balance	-4931
▁additions	-4932
▁heatproof	-4933
▁impressive	-4934
ana	-4935
sti	-4936
mardi	-4937
▁cola	-4938
packed	-4939
▁wafer	-4940
▁bottles	-4941
▁dollops	-4942
▁croissants	-4943
▁gorgonzola	-4944
▁unbleached	-4945
▁rectangular	-4946
▁la	-4947
ibut	-4948
ists	-4949
otic	-4950
pint	-4951
▁(95	-4952
▁rave	-4953
▁halve	-4954
▁forget	-4955
▁halibut	-4956
▁picnics	-4957
/2	-4958
bod	-4959
ria	-4960
▁wr	-4961
gent	-4962
▁based	-4963
▁chard	-4964
▁pairs	-4965
▁jambal	-4966
▁ensuring	-4967
▁important	-4968
▁quesadilla	-4969
▁substituted	-4970
apy	-4971
▁esc	-4972
▁farm	-4973
▁types	-4974
▁herbes	-4975
▁beverage	-4976
body	-4977
▁kim	-4978
▁flatt	-4979
▁serves	-4980
▁trivet	-4981
▁however	-4982
▁lunches	-4983
mar	-4984
aken	-4985
inary	-4986
▁fore	-4987
▁lima	-4988
▁snip	-4989
▁hatch	-4990
▁loose	-4991
▁soapy	-4992
▁rotating	-4993
und	-4994
flat	-4995
spect	-4996
ritious	-4997
▁seared	-4998
▁braided	-4999
▁exactly	-5000
▁giblets	-5001
▁nutritious	-5002
▁huge	-5003
mering	-5004
▁parfa	-5005
▁learned	-5006
▁scrubbed	-5007
my	-5008
augh	-5009
▁275	-5010
leans	-5011
▁(135	-5012
▁(14.1	-5013
▁kabobs	-5014
▁million	-5015
zer	-5016
isti	-5017
▁slit	-5018
▁irres	-5019
▁bulgogi	-5020
▁carving	-5021
gest	-5022
biscu	-5023
mouth	-5024
▁play	-5025
▁safe	-5026
ective	-5027
icotti	-5028
holiday	-5029
▁shaped	-5030
▁fillings	-5031
pop	-5032
estr	-5033
pass	-5034
skim	-5035
▁(18.25	-5036
▁conven	-5037
▁advance	-5038
▁gruyere	-5039
▁filipino	-5040
▁irresisti	-5041
▁occasions	-5042
▁scorching	-5043
11	-5044
ipp	-5045
cass	-5046
duty	-5047
year	-5048
▁taj	-5049
prise	-5050
▁drum	-5051
ginger	-5052
▁keeps	-5053
▁proof	-5054
▁seams	-5055
▁impact	-5056
▁orleans	-5057
▁sauteed	-5058
▁surprise	-5059
gan	-5060
weed	-5061
▁boo	-5062
never	-5063
▁tamales	-5064
▁flaxseed	-5065
.3	-5066
ient	-5067
▁110	-5068
▁13-	-5069
▁navy	-5070
▁flute	-5071
▁samos	-5072
▁inspect	-5073
▁mcc	-5074
▁nor	-5075
▁var	-5076
▁hoag	-5077
▁rope	-5078
▁stout	-5079
floured	-5080
▁cremini	-5081
fit	-5082
frit	-5083
mine	-5084
▁port	-5085
▁tell	-5086
▁vide	-5087
▁tajin	-5088
▁lemony	-5089
▁spiral	-5090
▁equally	-5091
▁requests	-5092
▁steaming	-5093
▁indentation	-5094
mi	-5095
inness	-5096
▁contr	-5097
▁resemble	-5098
▁whenever	-5099
▁carbonara	-5100
▁fashioned	-5101
10-	-5102
sed	-5103
home	-5104
▁(17	-5105
▁dir	-5106
▁kiwi	-5107
▁rele	-5108
▁molds	-5109
▁already	-5110
▁diamond	-5111
▁preparation	-5112
hered	-5113
uscan	-5114
▁(750	-5115
▁said	-5116
▁sauc	-5117
▁upper	-5118
▁except	-5119
▁hoagie	-5120
▁falling	-5121
▁rendered	-5122
ured	-5123
▁inv	-5124
oopie	-5125
▁kiss	-5126
▁absorb	-5127
▁common	-5128
▁subtle	-5129
line	-5130
fries	-5131
▁(15-	-5132
▁life	-5133
▁burst	-5134
blended	-5135
▁dusted	-5136
▁washed	-5137
▁reduces	-5138
▁saltine	-5139
▁pancetta	-5140
▁gathering	-5141
▁variations	-5142
alaf	-5143
berg	-5144
lyce	-5145
stra	-5146
▁gou	-5147
▁nap	-5148
chili	-5149
▁glyce	-5150
▁kugel	-5151
▁pantry	-5152
▁spaced	-5153
▁glycemic	-5154
▁following	-5155
▁decorative	-5156
▁ci	-5157
reek	-5158
▁cat	-5159
enned	-5160
▁face	-5161
▁fudgy	-5162
pickled	-5163
▁guarant	-5164
▁jellies	-5165
meatballs	-5166
▁julienned	-5167
▁generations	-5168
7-	-5169
hood	-5170
ighb	-5171
posed	-5172
▁(4.5	-5173
▁aren	-5174
▁seem	-5175
▁mason	-5176
▁trays	-5177
▁talian	-5178
passover	-5179
watering	-5180
▁broiled	-5181
▁guinness	-5182
▁scramble	-5183
6-	-5184
eze	-5185
aret	-5186
iram	-5187
▁meld	-5188
▁sign	-5189
ormick	-5190
ousses	-5191
▁crost	-5192
▁spelt	-5193
▁escape	-5194
▁extrac	-5195
▁pestle	-5196
▁mccormick	-5197
▁jas	-5198
ogies	-5199
▁iced	-5200
▁rows	-5201
hambur	-5202
itional	-5203
▁coming	-5204
▁grains	-5205
hamburgers	-5206
▁jambalaya	-5207
▁irresistible	-5208
iry	-5209
por	-5210
oupe	-5211
▁(29	-5212
▁(71	-5213
immon	-5214
▁leek	-5215
▁tilt	-5216
▁baker	-5217
▁cheap	-5218
▁gouda	-5219
▁nacho	-5220
▁peels	-5221
▁neighb	-5222
▁whether	-5223
▁membrane	-5224
▁hazelnuts	-5225
▁recommend	-5226
cas	-5227
▁ma	-5228
llen	-5229
view	-5230
▁sch	-5231
▁nutr	-5232
▁ladyf	-5233
▁pills	-5234
▁bitter	-5235
▁review	-5236
▁carcass	-5237
▁jasmine	-5238
▁campbell	-5239
▁naturally	-5240
▁presentation	-5241
isu	-5242
crisps	-5243
▁ideal	-5244
deviled	-5245
▁slurry	-5246
pancakes	-5247
▁smashed	-5248
▁tasting	-5249
▁circular	-5250
sandwiches	-5251
▁macaroons	-5252
▁persimmon	-5253
▁pillsbury	-5254
ettes	-5255
ities	-5256
▁fres	-5257
▁omit	-5258
▁skip	-5259
▁depth	-5260
▁tiram	-5261
▁colors	-5262
▁market	-5263
▁tuscan	-5264
▁delicate	-5265
▁manicotti	-5266
▁plantains	-5267
▁cornflakes	-5268
▁surprisingly	-5269
ints	-5270
aught	-5271
▁polish	-5272
▁vertic	-5273
▁enclose	-5274
ote	-5275
ule	-5276
use	-5277
lean	-5278
temp	-5279
▁dul	-5280
▁hen	-5281
▁leche	-5282
▁overc	-5283
▁young	-5284
▁carton	-5285
▁listed	-5286
brownies	-5287
▁casings	-5288
▁extracts	-5289
▁gatherings	-5290
oup	-5291
▁tub	-5292
▁fact	-5293
▁feat	-5294
▁oval	-5295
▁rough	-5296
▁motion	-5297
▁strata	-5298
cupcakes	-5299
▁scraper	-5300
▁tiramisu	-5301
▁else	-5302
▁millil	-5303
▁settle	-5304
▁wasabi	-5305
▁seaweed	-5306
▁towards	-5307
▁semolina	-5308
▁defective	-5309
za	-5310
dro	-5311
sum	-5312
fire	-5313
kend	-5314
otto	-5315
pare	-5316
cello	-5317
round	-5318
short	-5319
▁hair	-5320
aloupe	-5321
garian	-5322
▁calls	-5323
▁magic	-5324
▁breeze	-5325
▁sugges	-5326
▁poached	-5327
▁weekend	-5328
▁cantaloupe	-5329
22	-5330
▁kra	-5331
▁(205	-5332
▁limon	-5333
▁usual	-5334
▁kimchi	-5335
▁chowders	-5336
▁sterilize	-5337
▁milliliter	-5338
alafel	-5339
▁catch	-5340
▁compl	-5341
▁amaret	-5342
▁brewed	-5343
▁others	-5344
▁ramekin	-5345
▁personal	-5346
▁submerge	-5347
▁combining	-5348
▁customize	-5349
▁matchsticks	-5350
gat	-5351
off	-5352
▁tik	-5353
vegan	-5354
▁liver	-5355
quality	-5356
▁adapted	-5357
▁calories	-5358
▁overcrow	-5359
▁limoncello	-5360
udd	-5361
2122	-5362
▁suc	-5363
▁tro	-5364
▁cele	-5365
▁daugh	-5366
▁dulce	-5367
▁steep	-5368
▁goulash	-5369
▁gourmet	-5370
▁tucking	-5371
▁28	-5372
adam	-5373
ergy	-5374
rese	-5375
▁nam	-5376
cones	-5377
adamia	-5378
▁jigger	-5379
▁latkes	-5380
▁risotto	-5381
▁samosas	-5382
▁strands	-5383
▁crostini	-5384
▁macadamia	-5385
▁wi	-5386
icky	-5387
eseed	-5388
▁dips	-5389
▁imit	-5390
▁remin	-5391
▁celebr	-5392
▁design	-5393
▁street	-5394
▁brought	-5395
▁russian	-5396
▁streaks	-5397
▁checking	-5398
▁relatively	-5399
▁individually	-5400
yn	-5401
ict	-5402
alle	-5403
▁fur	-5404
▁(3.4	-5405
ustard	-5406
▁colle	-5407
▁kinds	-5408
▁wheel	-5409
▁adhere	-5410
▁nestle	-5411
▁amaretto	-5412
▁evaporates	-5413
▁experience	-5414
via	-5415
bowl	-5416
inis	-5417
▁blot	-5418
▁chai	-5419
▁pile	-5420
▁omelets	-5421
▁pockets	-5422
▁difference	-5423
ham	-5424
▁chex	-5425
▁napa	-5426
▁draft	-5427
▁liter	-5428
▁stead	-5429
arified	-5430
▁mounds	-5431
▁proper	-5432
▁reviews	-5433
▁whoopie	-5434
▁featuring	-5435
18-	-5436
olds	-5437
▁ana	-5438
▁son	-5439
▁tel	-5440
▁yam	-5441
▁swir	-5442
▁addic	-5443
▁pearl	-5444
▁intere	-5445
▁anchovy	-5446
▁substitut	-5447
oya	-5448
▁80	-5449
▁ba	-5450
▁grew	-5451
▁tost	-5452
▁mushy	-5453
▁iceberg	-5454
▁grapeseed	-5455
▁preferably	-5456
ming	-5457
feren	-5458
pecan	-5459
where	-5460
▁lover	-5461
▁puffs	-5462
▁myself	-5463
▁taught	-5464
blondies	-5465
▁submerged	-5466
cre	-5467
eta	-5468
ner	-5469
roma	-5470
▁(65	-5471
▁fus	-5472
▁font	-5473
▁paneer	-5474
▁solids	-5475
▁stores	-5476
▁caprese	-5477
acho	-5478
▁180	-5479
▁goya	-5480
▁livers	-5481
▁moving	-5482
▁anchovies	-5483
▁typically	-5484
azp	-5485
▁him	-5486
▁emul	-5487
▁balan	-5488
▁falls	-5489
azpacho	-5490
fitting	-5491
▁diwali	-5492
▁flours	-5493
▁fourth	-5494
▁65	-5495
▁combo	-5496
▁snick	-5497
estrone	-5498
▁harina	-5499
▁lumpia	-5500
▁afterno	-5501
▁dropped	-5502
▁contrast	-5503
▁football	-5504
▁modified	-5505
tie	-5506
▁fi	-5507
▁475	-5508
▁(100	-5509
▁grav	-5510
▁list	-5511
▁marz	-5512
▁blond	-5513
▁falafel	-5514
▁totally	-5515
▁calzones	-5516
▁imitation	-5517
▁spareribs	-5518
smo	-5519
ches	-5520
▁(43	-5521
▁roy	-5522
▁cone	-5523
▁patr	-5524
▁rece	-5525
▁succ	-5526
affles	-5527
▁baile	-5528
▁lumpy	-5529
▁scones	-5530
▁beaters	-5531
▁bisquick	-5532
▁directed	-5533
▁pinching	-5534
▁sizzling	-5535
▁shimmering	-5536
▁32	-5537
erel	-5538
lend	-5539
anged	-5540
ridge	-5541
▁mein	-5542
▁porridge	-5543
▁frittatas	-5544
anah	-5545
this	-5546
▁says	-5547
▁chunk	-5548
▁organ	-5549
▁tines	-5550
▁purple	-5551
▁certain	-5552
▁hashanah	-5553
▁preferen	-5554
dai	-5555
fold	-5556
hydr	-5557
ited	-5558
ripe	-5559
▁(245	-5560
▁dream	-5561
▁overl	-5562
▁tropic	-5563
monterey	-5564
▁cannoli	-5565
▁further	-5566
▁include	-5567
▁organic	-5568
▁ladyfingers	-5569
ank	-5570
▁ko	-5571
▁225	-5572
▁mudd	-5573
anging	-5574
▁apply	-5575
▁twine	-5576
▁hominy	-5577
▁bunches	-5578
▁fontina	-5579
▁waiting	-5580
▁residual	-5581
▁hungarian	-5582
▁preferred	-5583
▁tra	-5584
▁reyn	-5585
▁enhan	-5586
▁happy	-5587
▁matter	-5588
▁shared	-5589
▁overlap	-5590
▁daughter	-5591
▁reheated	-5592
▁reynolds	-5593
▁standing	-5594
whe	-5595
yeast	-5596
▁king	-5597
casser	-5598
iscent	-5599
▁liked	-5600
biscotti	-5601
▁sweeter	-5602
▁watching	-5603
casseroles	-5604
▁reminiscent	-5605
14	-5606
tre	-5607
▁ke	-5608
comb	-5609
▁cyl	-5610
▁jus	-5611
crack	-5612
inted	-5613
seder	-5614
▁bark	-5615
▁hens	-5616
▁knew	-5617
▁shows	-5618
▁stays	-5619
▁retain	-5620
▁steady	-5621
▁patrick	-5622
▁doughnut	-5623
▁unflavored	-5624
▁eve	-5625
▁bloo	-5626
▁cute	-5627
▁puer	-5628
▁rain	-5629
▁amish	-5630
▁crazy	-5631
▁royal	-5632
▁worry	-5633
▁energy	-5634
fil	-5635
icle	-5636
stir	-5637
▁ask	-5638
iting	-5639
▁glut	-5640
othered	-5641
▁mallet	-5642
▁splend	-5643
▁meatless	-5644
abs	-5645
bar	-5646
▁ge	-5647
heim	-5648
lamb	-5649
▁(80	-5650
▁curl	-5651
▁sous	-5652
▁flame	-5653
▁rellen	-5654
▁gravies	-5655
▁parfait	-5656
▁smothered	-5657
erd	-5658
pps	-5659
umn	-5660
▁(0	-5661
mesh	-5662
▁lun	-5663
▁pas	-5664
ipped	-5665
napps	-5666
rific	-5667
▁bleu	-5668
▁muss	-5669
▁okay	-5670
dinner	-5671
though	-5672
▁puffy	-5673
▁effect	-5674
▁succul	-5675
▁vermouth	-5676
▁caramelize	-5677
▁bittersweet	-5678
aly	-5679
com	-5680
reau	-5681
▁ass	-5682
crisp	-5683
▁imag	-5684
▁trip	-5685
active	-5686
noodle	-5687
▁achie	-5688
▁parsn	-5689
▁saucy	-5690
▁schnapps	-5691
▁disappear	-5692
▁drumsticks	-5693
ane	-5694
cha	-5695
▁ox	-5696
fter	-5697
rise	-5698
aquil	-5699
udded	-5700
▁dozen	-5701
▁impro	-5702
▁recre	-5703
aquiles	-5704
▁pulses	-5705
▁rustic	-5706
▁splenda	-5707
▁succulent	-5708
▁thumbprint	-5709
:21	-5710
▁stur	-5711
▁picky	-5712
intreau	-5713
▁notice	-5714
▁shreds	-5715
▁anaheim	-5716
▁minimum	-5717
▁mincemeat	-5718
west	-5719
ington	-5720
▁emuls	-5721
▁means	-5722
▁trick	-5723
avender	-5724
caramel	-5725
▁cordon	-5726
▁required	-5727
▁scalloped	-5728
▁suggested	-5729
ott	-5730
▁2%	-5731
▁ka	-5732
▁laz	-5733
ouble	-5734
▁girl	-5735
▁gyros	-5736
▁indul	-5737
▁trimm	-5738
buffalo	-5739
▁smells	-5740
▁stevia	-5741
homemade	-5742
▁dressed	-5743
▁simmers	-5744
▁afternoon	-5745
▁cointreau	-5746
▁bold	-5747
▁carn	-5748
▁chim	-5749
▁autumn	-5750
▁sturdy	-5751
▁twists	-5752
▁minimal	-5753
▁someone	-5754
▁although	-5755
▁hazelnut	-5756
▁finishing	-5757
▁marinating	-5758
▁originally	-5759
.8	-5760
15	-5761
ept	-5762
fet	-5763
▁7-	-5764
urst	-5765
▁ate	-5766
▁(12-	-5767
▁kept	-5768
▁desire	-5769
▁philly	-5770
▁wholes	-5771
southern	-5772
▁oysters	-5773
▁rainbow	-5774
▁breading	-5775
▁campfire	-5776
▁carbonated	-5777
11-	-5778
▁gh	-5779
drop	-5780
▁arb	-5781
▁keb	-5782
etnam	-5783
green	-5784
onion	-5785
▁kris	-5786
▁went	-5787
▁kraft	-5788
▁sister	-5789
▁success	-5790
▁creative	-5791
▁cylinder	-5792
ric	-5793
sour	-5794
▁gen	-5795
brant	-5796
▁buds	-5797
ousand	-5798
▁maybe	-5799
▁oxtail	-5800
▁chimich	-5801
▁fraiche	-5802
▁grinder	-5803
▁mussels	-5804
▁pulling	-5805
▁snapper	-5806
▁vibrant	-5807
▁accompan	-5808
▁thousand	-5809
▁wholesome	-5810
▁interesting	-5811
oon	-5812
atta	-5813
illi	-5814
ippi	-5815
▁ann	-5816
▁mid	-5817
dairy	-5818
ibisc	-5819
▁jama	-5820
▁supp	-5821
breads	-5822
seared	-5823
▁vitam	-5824
ibiscus	-5825
issippi	-5826
pleaser	-5827
▁prunes	-5828
▁sorbet	-5829
▁melting	-5830
▁pierogi	-5831
▁tropical	-5832
▁drizzling	-5833
gingerbread	-5834
▁mississippi	-5835
dill	-5836
mark	-5837
▁jim	-5838
▁wid	-5839
house	-5840
▁acid	-5841
edible	-5842
▁beign	-5843
▁stops	-5844
▁redhot	-5845
▁spider	-5846
▁eastern	-5847
▁resting	-5848
▁switching	-5849
▁--	-5850
▁135	-5851
falle	-5852
▁ciab	-5853
▁hick	-5854
▁feels	-5855
▁hocks	-5856
▁diffic	-5857
▁paired	-5858
▁hickory	-5859
▁blossoms	-5860
▁ciabatta	-5861
▁shortcut	-5862
▁everybody	-5863
))	-5864
icy	-5865
nel	-5866
▁za	-5867
acle	-5868
iago	-5869
▁120	-5870
▁butt	-5871
▁scoo	-5872
▁italy	-5873
▁mixes	-5874
▁asiago	-5875
combined	-5876
▁gazpacho	-5877
▁swirling	-5878
val	-5879
▁oe	-5880
adel	-5881
from	-5882
with	-5883
▁brat	-5884
▁north	-5885
▁shots	-5886
▁state	-5887
▁petals	-5888
▁slider	-5889
▁liquids	-5890
▁hibiscus	-5891
▁recently	-5892
▁difficult	-5893
keto	-5894
▁150	-5895
▁exc	-5896
▁sic	-5897
right	-5898
spicy	-5899
father	-5900
▁tasti	-5901
▁dollar	-5902
▁mojito	-5903
▁winner	-5904
▁unwrapped	-5905
▁nutritional	-5906
ial	-5907
sav	-5908
▁).	-5909
bone	-5910
phia	-5911
wurst	-5912
▁brit	-5913
▁lusc	-5914
▁reas	-5915
margar	-5916
▁resist	-5917
adelphia	-5918
▁luscious	-5919
▁crumbling	-5920
▁fruitcakes	-5921
▁chilaquiles	-5922
▁philadelphia	-5923
aro	-5924
kne	-5925
lov	-5926
ived	-5927
laze	-5928
▁iii	-5929
▁ros	-5930
amame	-5931
asant	-5932
grand	-5933
knead	-5934
▁(1/2	-5935
▁dimp	-5936
▁gram	-5937
▁guaj	-5938
▁ritz	-5939
▁invol	-5940
▁blends	-5941
▁normal	-5942
etnamese	-5943
pleasing	-5944
▁deglaze	-5945
▁edamame	-5946
▁guajillo	-5947
▁foolproof	-5948
▁meringues	-5949
ji	-5950
ung	-5951
▁cul	-5952
▁pra	-5953
▁pub	-5954
▁san	-5955
ution	-5956
▁braz	-5957
▁prof	-5958
intern	-5959
orange	-5960
▁aroma	-5961
▁bench	-5962
▁indent	-5963
▁panini	-5964
▁brother	-5965
▁cleanup	-5966
▁exposed	-5967
▁sterile	-5968
▁achieved	-5969
▁normally	-5970
▁overcook	-5971
▁bratwurst	-5972
▁flavorsome	-5973
▁mouthwatering	-5974
spag	-5975
sheet	-5976
savory	-5977
▁boost	-5978
▁seven	-5979
▁skirt	-5980
popcorn	-5981
spaghetti	-5982
▁lavender	-5983
margaritas	-5984
▁childhood	-5985
▁minestrone	-5986
hi	-5987
eak	-5988
pol	-5989
2014	-5990
pies	-5991
▁365	-5992
▁gol	-5993
▁airy	-5994
winter	-5995
▁blade	-5996
tequila	-5997
western	-5998
▁edible	-5999
▁invent	-6000
▁evening	-6001
▁complement	-6002
cob	-6003
licky	-6004
▁(6.5	-6005
▁wife	-6006
frying	-6007
▁rocks	-6008
cookies	-6009
▁scoops	-6010
meatball	-6011
▁baileys	-6012
▁calzone	-6013
▁closest	-6014
▁holding	-6015
▁garlicky	-6016
cel	-6017
oro	-6018
rosh	-6019
rican	-6020
▁(10-	-6021
▁lazy	-6022
issors	-6023
▁pitas	-6024
custard	-6025
▁bakery	-6026
chiladas	-6027
▁thickly	-6028
▁scissors	-6029
enchiladas	-6030
▁flattened	-6031
▁fruitcake	-6032
ird	-6033
arti	-6034
easy	-6035
▁bud	-6036
hazel	-6037
▁100%	-6038
▁aioli	-6039
omelets	-6040
▁beater	-6041
▁mangos	-6042
hazelnut	-6043
authentic	-6044
butternut	-6045
▁freezing	-6046
▁alternate	-6047
faj	-6048
ffy	-6049
acao	-6050
dump	-6051
gate	-6052
izer	-6053
▁ess	-6054
▁kno	-6055
▁adul	-6056
▁atar	-6057
▁case	-6058
▁zing	-6059
icular	-6060
▁attemp	-6061
▁mousses	-6062
dumplings	-6063
▁attached	-6064
▁versions	-6065
▁addictive	-6066
▁crustless	-6067
cco	-6068
▁oo	-6069
root	-6070
tial	-6071
fritt	-6072
▁hers	-6073
▁mind	-6074
burrit	-6075
school	-6076
▁adapt	-6077
▁block	-6078
▁purch	-6079
allions	-6080
biscuit	-6081
fajitas	-6082
waffles	-6083
▁adults	-6084
▁millet	-6085
frosting	-6086
▁passion	-6087
▁quality	-6088
▁spacing	-6089
▁studded	-6090
frittatas	-6091
▁interval	-6092
▁overbake	-6093
shortbread	-6094
▁stretching	-6095
international	-6096
▁alternatively	-6097
eed	-6098
lay	-6099
acky	-6100
ific	-6101
pink	-6102
ston	-6103
urri	-6104
wide	-6105
▁bol	-6106
andel	-6107
liced	-6108
salad	-6109
straw	-6110
▁hang	-6111
▁hits	-6112
pastry	-6113
▁likes	-6114
▁spent	-6115
▁giving	-6116
▁valent	-6117
▁provide	-6118
▁sharing	-6119
▁adjusting	-6120
▁chimichurri	-6121
nad	-6122
aggy	-6123
fine	-6124
ques	-6125
▁expe	-6126
▁reub	-6127
corned	-6128
crepes	-6129
toasted	-6130
▁decide	-6131
▁intact	-6132
▁pinwhe	-6133
▁puerto	-6134
▁rising	-6135
▁shaggy	-6136
▁syrupy	-6137
burritos	-6138
▁creamer	-6139
▁handled	-6140
doughnuts	-6141
▁beignets	-6142
▁memories	-6143
▁puddings	-6144
▁preference	-6145
oso	-6146
aise	-6147
cold	-6148
tend	-6149
zing	-6150
▁360	-6151
▁rid	-6152
▁live	-6153
▁upon	-6154
▁enter	-6155
▁wrong	-6156
▁worked	-6157
▁balanced	-6158
▁contains	-6159
▁snickerd	-6160
▁terrific	-6161
aps	-6162
issa	-6163
cobbl	-6164
▁hall	-6165
nadine	-6166
thanks	-6167
▁latte	-6168
▁melty	-6169
▁torte	-6170
canning	-6171
infused	-6172
▁burner	-6173
▁faster	-6174
▁nights	-6175
▁sizzle	-6176
▁remains	-6177
cornbread	-6178
▁grenadine	-6179
▁inverting	-6180
▁3/	-6181
ufch	-6182
▁cuban	-6183
▁eaters	-6184
▁forest	-6185
▁manual	-6186
▁reuben	-6187
▁unfold	-6188
▁weights	-6189
▁strained	-6190
strawberry	-6191
▁fermented	-6192
del	-6193
mex	-6194
bing	-6195
jams	-6196
▁hid	-6197
▁tubes	-6198
gnocchi	-6199
▁mangoes	-6200
▁discarded	-6201
pine	-6202
▁115	-6203
orter	-6204
treal	-6205
▁fuss	-6206
oodles	-6207
tively	-6208
anterel	-6209
coconut	-6210
▁fondue	-6211
▁shorter	-6212
pineapple	-6213
▁empanada	-6214
▁condiments	-6215
▁compliments	-6216
.6	-6217
.9	-6218
bin	-6219
▁21	-6220
▁oz	-6221
▁moo	-6222
▁bird	-6223
▁kais	-6224
▁shel	-6225
▁shop	-6226
▁sucr	-6227
▁antip	-6228
▁boils	-6229
▁drips	-6230
▁mocha	-6231
pickles	-6232
▁enjoys	-6233
▁funnel	-6234
▁massage	-6235
▁neighbor	-6236
▁recreate	-6237
▁shavings	-6238
▁southwestern	-6239
ost	-6240
▁pav	-6241
▁seg	-6242
amate	-6243
▁chic	-6244
▁inex	-6245
▁souff	-6246
osodium	-6247
▁boston	-6248
▁burners	-6249
▁reddish	-6250
▁shelled	-6251
▁upright	-6252
▁hardened	-6253
▁entertain	-6254
▁glutamate	-6255
▁guaranteed	-6256
▁monosodium	-6257
jal	-6258
owel	-6259
▁pig	-6260
▁rep	-6261
▁gyro	-6262
▁runs	-6263
▁tong	-6264
▁udon	-6265
coffee	-6266
▁belly	-6267
▁folds	-6268
▁skinn	-6269
▁bundle	-6270
▁darker	-6271
▁shoots	-6272
▁silver	-6273
▁spritz	-6274
▁supper	-6275
pastries	-6276
▁cheesest	-6277
▁included	-6278
▁invented	-6279
▁superfine	-6280
▁medallions	-6281
▁vietnamese	-6282
thanksgiving	-6283
▁experimenting	-6284
▁190	-6285
▁blt	-6286
▁bass	-6287
▁draw	-6288
▁golf	-6289
▁guil	-6290
▁neat	-6291
▁pain	-6292
▁post	-6293
▁wilt	-6294
▁crink	-6295
▁early	-6296
protein	-6297
▁softer	-6298
▁adjusted	-6299
▁wellington	-6300
▁incorporating	-6301
ani	-6302
bro	-6303
pat	-6304
▁det	-6305
▁dev	-6306
ining	-6307
▁cane	-6308
▁holl	-6309
▁menu	-6310
▁forth	-6311
▁silky	-6312
▁bought	-6313
▁dandel	-6314
▁shaken	-6315
▁storing	-6316
▁visible	-6317
▁cheesesteak	-6318
ca	-6319
dry	-6320
▁er	-6321
▁dun	-6322
apart	-6323
veeta	-6324
▁scott	-6325
▁birria	-6326
▁pocket	-6327
▁harissa	-6328
▁holland	-6329
▁chilling	-6330
▁drinking	-6331
▁farfalle	-6332
▁pizzelle	-6333
▁velveeta	-6334
▁containing	-6335
▁convenient	-6336
▁preheating	-6337
vegg	-6338
parent	-6339
▁escar	-6340
▁feast	-6341
▁marry	-6342
▁released	-6343
▁transparent	-6344
kon	-6345
▁da	-6346
appo	-6347
spin	-6348
▁(23	-6349
▁rad	-6350
▁sol	-6351
eapes	-6352
cherry	-6353
▁bison	-6354
▁doing	-6355
▁stage	-6356
▁intens	-6357
▁reason	-6358
▁tamari	-6359
▁appears	-6360
▁muddler	-6361
▁snipped	-6362
▁crystall	-6363
▁richness	-6364
▁seasonal	-6365
mediterranean	-6366
kish	-6367
▁175	-6368
▁ord	-6369
▁ric	-6370
▁wow	-6371
bling	-6372
▁impo	-6373
▁taqu	-6374
spiced	-6375
veggie	-6376
▁blist	-6377
▁notes	-6378
▁raves	-6379
▁changed	-6380
▁fusilli	-6381
▁miracle	-6382
▁warming	-6383
▁ordinary	-6384
▁produces	-6385
▁received	-6386
▁sicilian	-6387
▁blistered	-6388
▁croissant	-6389
16-	-6390
cata	-6391
muff	-6392
▁(3-	-6393
▁sog	-6394
▁tal	-6395
▁war	-6396
▁elev	-6397
gatoni	-6398
popped	-6399
▁alone	-6400
▁deeply	-6401
▁dehydr	-6402
▁lidded	-6403
▁disappo	-6404
▁piccata	-6405
▁heavenly	-6406
▁brazilian	-6407
▁clarified	-6408
▁fu	-6409
oumi	-6410
yard	-6411
▁390	-6412
alose	-6413
secco	-6414
vable	-6415
▁mark	-6416
▁mode	-6417
▁rand	-6418
▁sang	-6419
tomato	-6420
▁grams	-6421
▁heard	-6422
▁neufch	-6423
▁trader	-6424
▁pouring	-6425
▁backyard	-6426
▁halloumi	-6427
▁mornings	-6428
▁prosecco	-6429
▁rigatoni	-6430
▁sucralose	-6431
▁appearance	-6432
3-	-6433
wer	-6434
▁ga	-6435
▁flex	-6436
▁geor	-6437
▁hung	-6438
▁unus	-6439
▁giant	-6440
▁inexp	-6441
▁lines	-6442
▁mochi	-6443
▁named	-6444
▁pasty	-6445
quettes	-6446
spinach	-6447
▁allows	-6448
▁african	-6449
▁popping	-6450
▁various	-6451
togethers	-6452
▁consider	-6453
▁delicata	-6454
▁omelette	-6455
▁pimentos	-6456
▁pourable	-6457
▁fettuccini	-6458
bel	-6459
yond	-6460
▁125	-6461
color	-6462
▁fail	-6463
▁sens	-6464
▁rinds	-6465
▁vital	-6466
▁overly	-6467
▁scotch	-6468
▁silpat	-6469
reactive	-6470
▁butterf	-6471
▁lifting	-6472
▁turkish	-6473
▁consomme	-6474
▁entertaining	-6475
▁aj	-6476
azed	-6477
more	-6478
▁buc	-6479
▁yes	-6480
iforn	-6481
towel	-6482
▁(8.5	-6483
▁lets	-6484
▁told	-6485
suming	-6486
▁(2.25	-6487
▁bened	-6488
▁cores	-6489
▁pints	-6490
▁rises	-6491
▁roman	-6492
▁slush	-6493
ifornia	-6494
▁imposs	-6495
▁mandol	-6496
▁marbled	-6497
▁produce	-6498
▁turnips	-6499
▁unusual	-6500
▁benedict	-6501
▁greasing	-6502
▁textures	-6503
▁unpopped	-6504
▁hashbrown	-6505
▁california	-6506
lent	-6507
greek	-6508
thumb	-6509
ville	-6510
▁book	-6511
▁pump	-6512
▁sold	-6513
▁arrow	-6514
▁cavat	-6515
▁dashi	-6516
▁farro	-6517
▁fatty	-6518
▁flake	-6519
▁mores	-6520
posable	-6521
▁grater	-6522
▁malted	-6523
▁picked	-6524
desserts	-6525
▁fixings	-6526
▁forward	-6527
▁absolute	-6528
thumbprint	-6529
▁supermark	-6530
▁continually	-6531
▁inexpensive	-6532
▁crystallized	-6533
▁38	-6534
gall	-6535
sing	-6536
▁die	-6537
atore	-6538
▁file	-6539
gallon	-6540
sliced	-6541
▁bolog	-6542
▁cacao	-6543
▁rican	-6544
▁trust	-6545
▁husked	-6546
▁takeout	-6547
▁interior	-6548
▁makeover	-6549
▁reggiano	-6550
▁arrowroot	-6551
▁expensive	-6552
▁purchased	-6553
▁disposable	-6554
ids	-6555
son	-6556
abag	-6557
ital	-6558
▁kol	-6559
ester	-6560
isine	-6561
lette	-6562
▁nest	-6563
ettone	-6564
▁front	-6565
▁morel	-6566
▁tired	-6567
▁yield	-6568
▁cancel	-6569
▁fresco	-6570
▁hidden	-6571
▁kaiser	-6572
▁leches	-6573
▁sambal	-6574
▁cuisine	-6575
anterelle	-6576
▁montreal	-6577
▁panettone	-6578
▁tenderizer	-6579
ued	-6580
wered	-6581
binado	-6582
▁inten	-6583
▁messy	-6584
▁prawn	-6585
▁shelf	-6586
cabbage	-6587
▁bottled	-6588
▁brushed	-6589
▁butcher	-6590
▁catfish	-6591
▁compact	-6592
▁product	-6593
▁tweaked	-6594
▁chopping	-6595
▁ovenproof	-6596
▁turbinado	-6597
▁almondmilk	-6598
▁hollandaise	-6599
ba	-6600
beye	-6601
▁(57	-6602
▁saz	-6603
▁unm	-6604
iously	-6605
▁burnt	-6606
▁soggy	-6607
▁random	-6608
▁ribeye	-6609
▁toaster	-6610
consuming	-6611
▁decorated	-6612
▁overcrowd	-6613
▁gingersnaps	-6614
lar	-6615
ppo	-6616
ste	-6617
sto	-6618
tan	-6619
aged	-6620
nier	-6621
▁(6-	-6622
▁240	-6623
▁aff	-6624
layer	-6625
▁cozy	-6626
▁peak	-6627
▁site	-6628
▁cacci	-6629
▁devil	-6630
▁disks	-6631
▁beyond	-6632
▁budget	-6633
▁delect	-6634
▁depress	-6635
▁delivers	-6636
▁jamaican	-6637
▁scottish	-6638
▁cacciatore	-6639
ndy	-6640
ases	-6641
full	-6642
▁dal	-6643
umbos	-6644
▁moro	-6645
▁pate	-6646
▁scal	-6647
▁seen	-6648
arians	-6649
▁boxed	-6650
▁group	-6651
▁money	-6652
▁rugel	-6653
▁stuck	-6654
vanilla	-6655
▁jiggle	-6656
▁lunche	-6657
▁peeler	-6658
▁topper	-6659
▁chicago	-6660
▁closely	-6661
▁weather	-6662
▁rugelach	-6663
▁shimmers	-6664
▁basically	-6665
▁delectable	-6666
vin	-6667
▁ob	-6668
alia	-6669
amer	-6670
asto	-6671
▁dab	-6672
▁(105	-6673
▁begg	-6674
▁cass	-6675
▁late	-6676
▁tres	-6677
topped	-6678
▁abund	-6679
▁angle	-6680
▁areas	-6681
▁bulbs	-6682
▁famil	-6683
▁prima	-6684
▁stain	-6685
▁bulgur	-6686
▁higher	-6687
▁prawns	-6688
▁solution	-6689
▁cornflake	-6690
▁dandelion	-6691
▁valentine	-6692
▁vertically	-6693
sn	-6694
box	-6695
hey	-6696
iri	-6697
sch	-6698
puri	-6699
vera	-6700
▁mul	-6701
▁sar	-6702
iding	-6703
purim	-6704
▁1/3-	-6705
▁body	-6706
▁oele	-6707
▁bonus	-6708
▁slash	-6709
mixture	-6710
▁aleppo	-6711
▁kisses	-6712
▁online	-6713
▁quince	-6714
▁changes	-6715
▁hershey	-6716
▁intense	-6717
▁pounded	-6718
▁primavera	-6719
▁resulting	-6720
12	-6721
anz	-6722
tiv	-6723
uan	-6724
▁ms	-6725
pote	-6726
ulee	-6727
▁flo	-6728
▁pun	-6729
▁sle	-6730
▁mull	-6731
▁coast	-6732
▁quant	-6733
▁appeal	-6734
▁brulee	-6735
▁church	-6736
▁expect	-6737
▁kettle	-6738
▁muddle	-6739
▁compote	-6740
▁lengths	-6741
▁opposing	-6742
▁impossible	-6743
.2	-6744
rs	-6745
iar	-6746
inz	-6747
rum	-6748
▁mc	-6749
lest	-6750
▁max	-6751
▁pak	-6752
▁ref	-6753
inian	-6754
▁city	-6755
▁dirt	-6756
▁spam	-6757
banese	-6758
▁blini	-6759
▁knots	-6760
▁extend	-6761
▁kebabs	-6762
▁london	-6763
american	-6764
▁granita	-6765
▁involved	-6766
▁condiment	-6767
ki	-6768
ura	-6769
▁ja	-6770
▁ji	-6771
aren	-6772
▁tag	-6773
anger	-6774
board	-6775
rated	-6776
serve	-6777
tured	-6778
▁(16-	-6779
▁asks	-6780
▁buff	-6781
▁deal	-6782
▁heinz	-6783
▁oelek	-6784
▁packs	-6785
▁americ	-6786
▁pavlov	-6787
▁proble	-6788
▁remind	-6789
▁surely	-6790
▁turnip	-6791
▁unmold	-6792
filipino	-6793
▁flowers	-6794
▁sanding	-6795
▁surround	-6796
▁direction	-6797
▁indulgent	-6798
▁indentations	-6799
▁accompaniment	-6800
:22	-6801
era	-6802
ante	-6803
iked	-6804
rost	-6805
▁wel	-6806
itter	-6807
space	-6808
▁none	-6809
frozen	-6810
terior	-6811
▁alike	-6812
▁chess	-6813
▁flair	-6814
▁tikka	-6815
▁daikon	-6816
▁broiling	-6817
▁everyday	-6818
▁exterior	-6819
▁finishes	-6820
▁granular	-6821
▁amazingly	-6822
▁flourless	-6823
▁headspace	-6824
oa	-6825
eye	-6826
pec	-6827
sca	-6828
ipan	-6829
▁dor	-6830
▁pou	-6831
apeno	-6832
ntine	-6833
wards	-6834
▁mimo	-6835
▁mong	-6836
▁sits	-6837
apples	-6838
glazed	-6839
▁canes	-6840
▁chive	-6841
▁hurry	-6842
▁vents	-6843
▁canada	-6844
▁morocc	-6845
▁tester	-6846
jalapeno	-6847
▁british	-6848
▁handles	-6849
▁request	-6850
▁shaping	-6851
▁threads	-6852
▁entirely	-6853
▁properly	-6854
▁regularly	-6855
grandmother	-6856
▁florentine	-6857
▁measurements	-6858
ker	-6859
sel	-6860
come	-6861
imin	-6862
▁hav	-6863
arrow	-6864
light	-6865
olian	-6866
▁(14-	-6867
▁cost	-6868
▁hock	-6869
▁sell	-6870
eggnog	-6871
sorted	-6872
▁carne	-6873
▁essen	-6874
▁wants	-6875
▁casing	-6876
▁figure	-6877
▁pastor	-6878
▁assorted	-6879
▁moroccan	-6880
▁overripe	-6881
▁provides	-6882
▁wrapping	-6883
▁dressings	-6884
44	-6885
ems	-6886
ades	-6887
ices	-6888
uced	-6889
▁sne	-6890
▁tid	-6891
iesta	-6892
istic	-6893
large	-6894
▁bulb	-6895
cooker	-6896
▁items	-6897
▁loads	-6898
▁scant	-6899
gourmet	-6900
▁fiesta	-6901
▁fresca	-6902
▁hungry	-6903
▁college	-6904
▁envelop	-6905
▁havarti	-6906
▁marnier	-6907
▁trouble	-6908
▁mixtures	-6909
▁pleasant	-6910
▁skimming	-6911
▁eggplants	-6912
▁pierogies	-6913
▁specialty	-6914
andy	-6915
ayas	-6916
enug	-6917
lied	-6918
tart	-6919
▁(160	-6920
▁kent	-6921
anzaro	-6922
▁chain	-6923
▁indic	-6924
▁shank	-6925
rhubarb	-6926
special	-6927
▁cannot	-6928
▁earthy	-6929
▁elimin	-6930
▁matcha	-6931
▁paella	-6932
▁petite	-6933
enugreek	-6934
▁content	-6935
▁infused	-6936
▁largest	-6937
▁marzipan	-6938
▁assembled	-6939
▁boyfriend	-6940
▁mongolian	-6941
▁nectarines	-6942
jo	-6943
ahl	-6944
2044	-6945
atio	-6946
ging	-6947
part	-6948
ucky	-6949
▁joy	-6950
amari	-6951
▁(185	-6952
▁flor	-6953
▁jerk	-6954
▁prom	-6955
action	-6956
baking	-6957
▁dirty	-6958
▁covers	-6959
▁dimple	-6960
▁jarred	-6961
▁narrow	-6962
crackers	-6963
▁creates	-6964
▁feeding	-6965
▁grandpa	-6966
▁picante	-6967
▁porcini	-6968
▁kentucky	-6969
▁truffles	-6970
▁vertical	-6971
▁barbecued	-6972
▁signature	-6973
▁smoothing	-6974
▁hy	-6975
anta	-6976
jell	-6977
kids	-6978
pear	-6979
they	-6980
▁lor	-6981
grade	-6982
orial	-6983
pared	-6984
▁ease	-6985
▁jazz	-6986
▁stun	-6987
▁cookb	-6988
▁guava	-6989
▁guess	-6990
▁tacky	-6991
▁width	-6992
vinegar	-6993
▁farmer	-6994
▁harves	-6995
▁mulled	-6996
▁tongue	-6997
▁eggless	-6998
▁sitting	-6999
▁sprayed	-7000
▁enjoying	-7001
▁certainly	-7002
▁fenugreek	-7003
▁pinwheels	-7004
▁complements	-7005
lid	-7006
agle	-7007
gnac	-7008
▁sme	-7009
▁alla	-7010
▁east	-7011
▁sard	-7012
▁shak	-7013
altern	-7014
weight	-7015
▁discs	-7016
▁eagle	-7017
▁jimmy	-7018
winning	-7019
▁canner	-7020
▁herbed	-7021
▁flexible	-7022
▁envelopes	-7023
▁literally	-7024
▁otherwise	-7025
▁depression	-7026
▁multigrain	-7027
▁separately	-7028
▁separating	-7029
ann	-7030
erg	-7031
▁fa	-7032
▁ti	-7033
hash	-7034
saus	-7035
ubby	-7036
▁(85	-7037
▁vac	-7038
drink	-7039
ranes	-7040
▁dean	-7041
▁boxes	-7042
browned	-7043
leftover	-7044
▁cookout	-7045
▁curried	-7046
▁fondant	-7047
▁surpris	-7048
▁crystals	-7049
▁rellenos	-7050
▁taquitos	-7051
buttermilk	-7052
▁membranes	-7053
▁perfected	-7054
▁weeknights	-7055
fir	-7056
mid	-7057
ral	-7058
erve	-7059
ical	-7060
ster	-7061
▁11-	-7062
▁lab	-7063
▁shr	-7064
▁tsp	-7065
▁vid	-7066
frost	-7067
salsa	-7068
sided	-7069
▁(235	-7070
▁meet	-7071
▁pace	-7072
▁pool	-7073
▁cones	-7074
▁notch	-7075
▁offer	-7076
▁spend	-7077
▁cognac	-7078
▁amongst	-7079
▁parsnip	-7080
▁sangria	-7081
▁vidalia	-7082
▁bringing	-7083
▁luncheon	-7084
▁preheats	-7085
▁barbecues	-7086
▁chanterelle	-7087
70	-7088
▁26	-7089
esli	-7090
ject	-7091
▁(4-	-7092
▁18-	-7093
▁agua	-7094
▁mors	-7095
▁pigs	-7096
▁snug	-7097
▁todd	-7098
riotic	-7099
selves	-7100
▁plump	-7101
▁tikto	-7102
sausage	-7103
▁county	-7104
▁crisco	-7105
▁muesli	-7106
▁shears	-7107
▁stands	-7108
▁unlike	-7109
icularly	-7110
▁defrost	-7111
▁deliver	-7112
▁ribbons	-7113
▁vitamix	-7114
▁greatest	-7115
▁potstick	-7116
▁stunning	-7117
▁patriotic	-7118
▁orcestershire	-7119
wa	-7120
dew	-7121
omm	-7122
▁lb	-7123
atel	-7124
deep	-7125
izes	-7126
▁dig	-7127
▁due	-7128
▁saw	-7129
cress	-7130
▁kahl	-7131
▁prev	-7132
▁ragu	-7133
▁teff	-7134
orable	-7135
▁carbs	-7136
▁hubby	-7137
▁maxim	-7138
▁poach	-7139
▁sneak	-7140
▁torch	-7141
▁became	-7142
▁papaya	-7143
▁reminds	-7144
▁slivers	-7145
▁sugared	-7146
▁honeydew	-7147
▁overwork	-7148
▁scallion	-7149
▁snacking	-7150
tablespoon	-7151
▁matchstick	-7152
▁watercress	-7153
tac	-7154
wor	-7155
calz	-7156
chio	-7157
note	-7158
▁(40	-7159
▁age	-7160
▁ali	-7161
▁jap	-7162
antic	-7163
▁hass	-7164
▁ukra	-7165
ically	-7166
icchio	-7167
▁guide	-7168
▁inner	-7169
▁weave	-7170
▁buffet	-7171
▁creams	-7172
▁overpo	-7173
calzones	-7174
▁cereals	-7175
▁stirred	-7176
▁tripled	-7177
▁radicchio	-7178
▁southwest	-7179
▁vegetarians	-7180
sy	-7181
add	-7182
aka	-7183
bag	-7184
oud	-7185
rod	-7186
▁kh	-7187
▁ol	-7188
ames	-7189
oman	-7190
orio	-7191
rata	-7192
well	-7193
▁(52	-7194
▁1/5	-7195
▁lux	-7196
▁mrs	-7197
▁sin	-7198
black	-7199
ising	-7200
yellow	-7201
▁daiqu	-7202
▁halwa	-7203
▁jiffy	-7204
▁shade	-7205
▁taken	-7206
portion	-7207
▁gelato	-7208
▁shaksh	-7209
▁supple	-7210
▁tiktok	-7211
biscuits	-7212
▁arborio	-7213
▁blondie	-7214
▁consomm	-7215
▁gifting	-7216
▁maximum	-7217
▁segments	-7218
▁mandoline	-7219
▁uniformly	-7220
▁discovered	-7221
▁emulsified	-7222
io	-7223
14-	-7224
gia	-7225
asts	-7226
elve	-7227
firm	-7228
long	-7229
veal	-7230
▁(46	-7231
▁14-	-7232
▁law	-7233
▁pod	-7234
▁rut	-7235
▁vir	-7236
ident	-7237
▁cafe	-7238
▁fide	-7239
▁ours	-7240
▁till	-7241
jewish	-7242
loaves	-7243
monkey	-7244
▁award	-7245
▁clump	-7246
▁stale	-7247
▁buying	-7248
▁distin	-7249
▁region	-7250
▁burrata	-7251
▁imagine	-7252
▁spreads	-7253
guacamole	-7254
sourdough	-7255
▁colorado	-7256
▁pleasing	-7257
▁garnishes	-7258
▁surprised	-7259
▁trimmings	-7260
sw	-7261
ida	-7262
ify	-7263
mem	-7264
▁zi	-7265
olic	-7266
▁(30	-7267
belie	-7268
fetti	-7269
▁duty	-7270
▁fuji	-7271
▁gaps	-7272
▁jams	-7273
rimmed	-7274
▁brick	-7275
▁crave	-7276
▁meets	-7277
▁prune	-7278
▁raised	-7279
▁respec	-7280
▁watery	-7281
▁cookbook	-7282
▁friendly	-7283
▁arranging	-7284
▁jellyroll	-7285
▁respectively	-7286
/2-	-7287
fle	-7288
ude	-7289
ando	-7290
even	-7291
uper	-7292
▁(2-	-7293
▁arm	-7294
▁ube	-7295
▁(112	-7296
▁band	-7297
▁roti	-7298
▁wall	-7299
▁atten	-7300
▁india	-7301
▁paint	-7302
▁prior	-7303
▁sumac	-7304
▁tando	-7305
▁weigh	-7306
▁doughy	-7307
▁master	-7308
▁patted	-7309
▁trifle	-7310
▁twelve	-7311
▁wouldn	-7312
▁america	-7313
▁complex	-7314
▁galette	-7315
▁mention	-7316
▁flattens	-7317
▁preserve	-7318
▁attention	-7319
▁cantanzaro	-7320
▁dehydrator	-7321
▁themselves	-7322
pri	-7323
▁bh	-7324
hell	-7325
▁fut	-7326
▁mmm	-7327
added	-7328
▁(1/4	-7329
▁engl	-7330
▁oils	-7331
▁beefy	-7332
▁begun	-7333
▁bunny	-7334
▁cause	-7335
▁curds	-7336
▁knock	-7337
▁ratio	-7338
▁relax	-7339
▁rotel	-7340
▁smear	-7341
▁wells	-7342
▁poured	-7343
▁toasty	-7344
molasses	-7345
▁endless	-7346
▁islands	-7347
▁unbelie	-7348
▁exciting	-7349
▁overcrowding	-7350
16	-7351
40	-7352
uka	-7353
beat	-7354
hand	-7355
scht	-7356
udge	-7357
▁(73	-7358
▁hon	-7359
▁nan	-7360
▁pep	-7361
▁swe	-7362
stack	-7363
▁heav	-7364
▁sort	-7365
lentil	-7366
smooth	-7367
▁crown	-7368
▁eater	-7369
▁haven	-7370
▁shuck	-7371
▁consum	-7372
▁liquef	-7373
▁places	-7374
▁spoons	-7375
▁sugary	-7376
▁blanket	-7377
▁borscht	-7378
▁cornish	-7379
▁crisped	-7380
▁germany	-7381
▁harvest	-7382
▁persian	-7383
▁promise	-7384
▁microwav	-7385
uca	-7386
itan	-7387
frito	-7388
heart	-7389
quite	-7390
tacos	-7391
▁fell	-7392
▁word	-7393
licate	-7394
▁lived	-7395
▁santa	-7396
▁satay	-7397
licated	-7398
▁asking	-7399
▁grainy	-7400
▁unless	-7401
▁fitting	-7402
▁options	-7403
▁sofrito	-7404
▁tastier	-7405
▁krispies	-7406
▁textured	-7407
▁workable	-7408
▁poppyseed	-7409
▁tenderness	-7410
▁overhanging	-7411
▁substituting	-7412
▁snickerdoodle	-7413
bb	-7414
eh	-7415
dor	-7416
inc	-7417
scr	-7418
uts	-7419
atsu	-7420
gian	-7421
loss	-7422
pler	-7423
rael	-7424
▁dom	-7425
▁wis	-7426
▁feet	-7427
▁unex	-7428
depend	-7429
▁nutri	-7430
▁scale	-7431
▁spook	-7432
▁valve	-7433
crusted	-7434
▁future	-7435
▁looked	-7436
▁roughy	-7437
▁shrink	-7438
▁attempt	-7439
▁citrusy	-7440
▁england	-7441
▁pavlova	-7442
▁stripes	-7443
depending	-7444
▁chickens	-7445
▁mesquite	-7446
▁randomly	-7447
▁remainder	-7448
▁increments	-7449
▁neufchatel	-7450
▁potstickers	-7451
bir	-7452
eth	-7453
ica	-7454
ceed	-7455
fuse	-7456
▁bob	-7457
▁mop	-7458
▁pay	-7459
clean	-7460
curry	-7461
inion	-7462
ombie	-7463
▁tied	-7464
assium	-7465
pected	-7466
prefer	-7467
▁adult	-7468
▁cakey	-7469
▁carib	-7470
▁pollo	-7471
▁compon	-7472
▁conver	-7473
▁expand	-7474
▁zombie	-7475
▁fashion	-7476
▁opinion	-7477
▁proceed	-7478
▁putting	-7479
▁rapidly	-7480
▁strange	-7481
▁sweeten	-7482
▁calamari	-7483
▁carnitas	-7484
▁compress	-7485
▁suitable	-7486
▁ukrainian	-7487
▁countertop	-7488
▁horizontal	-7489
▁unexpected	-7490
lli	-7491
yer	-7492
bits	-7493
rami	-7494
soup	-7495
▁16-	-7496
▁bib	-7497
▁dan	-7498
▁mil	-7499
acher	-7500
anson	-7501
antip	-7502
candy	-7503
ddess	-7504
favor	-7505
▁puts	-7506
▁soba	-7507
▁soph	-7508
▁tons	-7509
▁wasn	-7510
artich	-7511
shrimp	-7512
ulator	-7513
▁ghost	-7514
▁loses	-7515
▁pakor	-7516
▁today	-7517
▁liquor	-7518
▁pancit	-7519
coleslaw	-7520
▁goddess	-7521
▁jiggles	-7522
▁pleaser	-7523
artichoke	-7524
▁pastrami	-7525
▁tailgate	-7526
preferably	-7527
▁neighbors	-7528
▁creamsicle	-7529
iv	-7530
asy	-7531
orr	-7532
oza	-7533
wic	-7534
mart	-7535
nach	-7536
thai	-7537
▁cri	-7538
▁oma	-7539
every	-7540
izing	-7541
snack	-7542
▁boat	-7543
▁nose	-7544
▁virt	-7545
summer	-7546
wiched	-7547
▁(17.5	-7548
▁betty	-7549
▁guilt	-7550
▁herby	-7551
▁palms	-7552
▁highly	-7553
▁introd	-7554
▁living	-7555
▁roasts	-7556
▁feeling	-7557
▁perform	-7558
▁pushing	-7559
▁rubbing	-7560
▁shucked	-7561
overnight	-7562
▁inverted	-7563
▁lebanese	-7564
▁caribbean	-7565
▁increasing	-7566
▁pepperjack	-7567
▁sandwiched	-7568
▁experimented	-7569
tel	-7570
▁pb	-7571
iped	-7572
rian	-7573
▁50%	-7574
▁err	-7575
▁gob	-7576
▁lic	-7577
dutch	-7578
illow	-7579
raine	-7580
▁item	-7581
▁road	-7582
▁soul	-7583
▁yuca	-7584
amping	-7585
povers	-7586
▁conco	-7587
▁criss	-7588
▁drape	-7589
▁fewer	-7590
▁fiery	-7591
▁moder	-7592
scratch	-7593
▁entree	-7594
▁kahlua	-7595
▁rested	-7596
▁tempeh	-7597
▁grahams	-7598
▁problem	-7599
leftovers	-7600
▁commonly	-7601
▁daiquiri	-7602
▁funfetti	-7603
▁lorraine	-7604
▁trimming	-7605
▁crescents	-7606
▁overpower	-7607
▁yorkshire	-7608
▁steakhouse	-7609
:23	-7610
mod	-7611
▁um	-7612
appi	-7613
back	-7614
ibil	-7615
salt	-7616
▁(93	-7617
▁234	-7618
▁beh	-7619
▁caf	-7620
▁pup	-7621
▁sup	-7622
iotic	-7623
uchen	-7624
ucing	-7625
umble	-7626
▁bomb	-7627
▁prem	-7628
▁tool	-7629
estyle	-7630
friger	-7631
greens	-7632
sticky	-7633
▁babka	-7634
▁bella	-7635
▁benef	-7636
▁crabs	-7637
▁handy	-7638
▁pouch	-7639
▁stars	-7640
cktails	-7641
▁allerg	-7642
▁boring	-7643
▁cutlet	-7644
▁valley	-7645
favorite	-7646
▁pepitas	-7647
▁summery	-7648
▁swanson	-7649
▁tidbits	-7650
▁cravings	-7651
▁parsnips	-7652
▁perogies	-7653
▁tandoori	-7654
▁visiting	-7655
▁cavatappi	-7656
▁crispness	-7657
▁guarantee	-7658
▁probiotic	-7659
▁stainless	-7660
▁customized	-7661
▁flattening	-7662
▁noticeably	-7663
▁grandfather	-7664
▁fermentation	-7665
gg	-7666
kn	-7667
tos	-7668
wan	-7669
chow	-7670
kake	-7671
ship	-7672
syru	-7673
▁sze	-7674
▁wre	-7675
irish	-7676
lunch	-7677
reams	-7678
super	-7679
▁born	-7680
▁mats	-7681
▁pral	-7682
▁slee	-7683
▁swap	-7684
▁tenn	-7685
chamel	-7686
ension	-7687
spring	-7688
▁lolli	-7689
▁moose	-7690
▁shine	-7691
▁walls	-7692
ination	-7693
whiskey	-7694
▁colada	-7695
▁medley	-7696
▁stacks	-7697
▁wreath	-7698
▁crouton	-7699
▁showers	-7700
▁culinary	-7701
▁sealable	-7702
▁reduction	-7703
▁somewhere	-7704
▁proportion	-7705
cts	-7706
▁27	-7707
ajun	-7708
edar	-7709
grav	-7710
oped	-7711
▁380	-7712
▁din	-7713
▁nav	-7714
▁net	-7715
▁ten	-7716
illed	-7717
▁mama	-7718
ession	-7719
scross	-7720
upside	-7721
▁cedar	-7722
▁dital	-7723
▁hines	-7724
▁knows	-7725
▁riced	-7726
▁yours	-7727
▁bisque	-7728
▁divine	-7729
▁duncan	-7730
▁milksh	-7731
▁points	-7732
▁spooky	-7733
▁absorbs	-7734
▁altered	-7735
▁bologna	-7736
▁crinkle	-7737
▁pointed	-7738
▁present	-7739
▁weekday	-7740
louisiana	-7741
▁ditalini	-7742
▁sophistic	-7743
▁squeezing	-7744
buttercream	-7745
▁crisscross	-7746
▁breadsticks	-7747
▁disappointed	-7748
▁bi	-7749
:200	-7750
:300	-7751
erie	-7752
ibly	-7753
into	-7754
ombs	-7755
vint	-7756
▁105	-7757
▁pam	-7758
▁pen	-7759
antly	-7760
foods	-7761
orice	-7762
party	-7763
vodka	-7764
▁amin	-7765
▁komb	-7766
▁penn	-7767
roasts	-7768
sloppy	-7769
▁(0.25	-7770
▁arils	-7771
▁bombs	-7772
▁carve	-7773
▁conne	-7774
▁gyoza	-7775
▁meyer	-7776
canapes	-7777
crimini	-7778
fettucc	-7779
muffins	-7780
vintage	-7781
▁fresno	-7782
▁toasts	-7783
▁wiping	-7784
browning	-7785
custards	-7786
lemonade	-7787
linguine	-7788
memorial	-7789
refriger	-7790
shiitake	-7791
▁markets	-7792
▁morsels	-7793
▁peeling	-7794
▁perpend	-7795
▁sherbet	-7796
macaroons	-7797
mushrooms	-7798
potassium	-7799
▁compound	-7800
▁crispier	-7801
▁escarole	-7802
▁licorice	-7803
bruschetta	-7804
fettuccini	-7805
superfoods	-7806
▁searching	-7807
▁shakshuka	-7808
▁sophisticated	-7809
:24	-7810
cle	-7811
diy	-7812
tap	-7813
uro	-7814
ctac	-7815
dorf	-7816
july	-7817
▁(5-	-7818
▁bav	-7819
▁dup	-7820
▁gal	-7821
▁ins	-7822
▁lev	-7823
▁spa	-7824
fudge	-7825
isins	-7826
tapas	-7827
wraps	-7828
▁ajar	-7829
▁boys	-7830
▁mace	-7831
▁pith	-7832
▁rump	-7833
▁sale	-7834
▁stru	-7835
diwali	-7836
hummus	-7837
mousse	-7838
picnic	-7839
steaks	-7840
syrups	-7841
▁bloom	-7842
▁earth	-7843
▁kiwis	-7844
▁sarah	-7845
▁satur	-7846
▁shock	-7847
▁umami	-7848
alloped	-7849
freezer	-7850
mousses	-7851
▁blonde	-7852
▁curing	-7853
▁gloves	-7854
▁rubbed	-7855
▁souffl	-7856
▁swerve	-7857
ctacular	-7858
everyday	-7859
martinis	-7860
▁simpler	-7861
frostings	-7862
▁becoming	-7863
▁braising	-7864
▁craisins	-7865
▁eliminate	-7866
refrigerator	-7867
▁spectacular	-7868
alternatively	-7869
ob	-7870
bra	-7871
got	-7872
jer	-7873
ders	-7874
raid	-7875
type	-7876
▁(72	-7877
▁ash	-7878
▁bes	-7879
▁der	-7880
▁hue	-7881
▁rip	-7882
▁sac	-7883
flour	-7884
grass	-7885
▁mugs	-7886
▁yule	-7887
biotic	-7888
consin	-7889
drinks	-7890
quiche	-7891
relish	-7892
▁activ	-7893
▁fideo	-7894
▁knorr	-7895
▁marys	-7896
▁piled	-7897
▁sizes	-7898
▁teeth	-7899
adillas	-7900
▁afraid	-7901
▁chilly	-7902
▁hawaii	-7903
▁linzer	-7904
▁luxuri	-7905
▁mimosa	-7906
birthday	-7907
chowders	-7908
shepherd	-7909
▁begging	-7910
▁spooned	-7911
▁tempura	-7912
▁welcome	-7913
clarified	-7914
cocktails	-7915
specialty	-7916
▁carolina	-7917
▁draining	-7918
▁lollipop	-7919
flatbreads	-7920
▁antipasto	-7921
▁celebrate	-7922
▁wisconsin	-7923
▁lemongrass	-7924
cheeseburgers	-7925
bby	-7926
chie	-7927
ctic	-7928
kely	-7929
test	-7930
▁(50	-7931
▁lac	-7932
2122)	-7933
cajun	-7934
delic	-7935
hawai	-7936
ignon	-7937
mixed	-7938
piece	-7939
▁(3.9	-7940
▁fizz	-7941
▁mich	-7942
▁town	-7943
nachos	-7944
▁(16.3	-7945
▁pract	-7946
▁ricer	-7947
▁visit	-7948
cobbler	-7949
▁blocks	-7950
▁	-7951
e	-7952
t	-7953
a	-7954
o	-7955
n	-7956
i	-7957
r	-7958
s	-7959
l	-7960
d	-7961
c	-7962
u	-7963
p	-7964
h	-7965
g	-7966
,	-7967
m	-7968
b	-7969
f	-7970
w	-7971
.	-7972
k	-7973
y	-7974
v	-7975
1	-7976
:	-7977
0	-7978
2	-7979
-	-7980
x	-7981
5	-7982
3	-7983
)	-7984
(	-7985
4	-7986
z	-7987
j	-7988
/	-7989
q	-7990
8	-7991
6	-7992
7	-7993
9	-7994
%	-7995
